{
  "version": "1.0",
  "truncation": null,
  "padding": null,
  "added_tokens": [
    {
      "id": 0,
      "content": "<pad>",
      "single_word": false,
      "lstrip": false,
      "rstrip": false,
      "normalized": false,
      "special": true
    },
    {
      "id": 1,
      "content": "<bos>",
      "single_word": false,
      "lstrip": false,
      "rstrip": false,
      "normalized": false,
      "special": true
    },
    {
      "id": 2,
      "content": "<eos>",
      "single_word": false,
      "lstrip": false,
      "rstrip": false,
      "normalized": false,
      "special": true
    },
    {
      "id": 3,
      "content": "<join>",
      "single_word": false,
      "lstrip": false,
      "rstrip": false,
      "normalized": false,
      "special": true
    },
    {
      "id": 4,
      "content": "<sent>",
      "single_word": false,
      "lstrip": false,
      "rstrip": false,
      "normalized": false,
      "special": true
    },
    {
      "id": 5,
      "content": "<unk>",
      "single_word": false,
      "lstrip": false,
      "rstrip": false,
      "normalized": false,
      "special": true
    }
  ],
  "normalizer": null,
  "pre_tokenizer": {
    "type": "WhitespaceSplit"
  },
  "post_processor": null,
  "decoder": null,
  "model": {
    "type": "BPE",
    "dropout": null,
    "unk_token": "<unk>",
    "continuing_subword_prefix": null,
    "end_of_word_suffix": null,
    "fuse_unk": true,
    "byte_fallback": false,
    "ignore_merges": false,
    "vocab": {
      "<pad>": 0,
      "<bos>": 1,
      "<eos>": 2,
      "<join>": 3,
      "<sent>": 4,
      "<unk>": 5,
      "a": 6,
      "b": 7,
      "c": 8,
      "d": 9,
      "e": 10,
      "f": 11,
      "g": 12,
      "h": 13,
      "i": 14,
      "j": 15,
      "k": 16,
      "l": 17,
      "m": 18,
      "n": 19,
      "o": 20,
      "p": 21,
      "q": 22,
      "r": 23,
      "s": 24,
      "t": 25,
      "u": 26,
      "v": 27,
      "w": 28,
      "x": 29,
      "y": 30,
      "z": 31,
      "he": 32,
      "the": 33,
      "an": 34,
      "ed": 35,
      "to": 36,
      "and": 37,
      "in": 38,
      "it": 39,
      "re": 40,
      "as": 41,
      "ou": 42,
      "on": 43,
      "ha": 44,
      "er": 45,
      "was": 46,
      "ar": 47,
      "en": 48,
      "ay": 49,
      "she": 50,
      "ing": 51,
      "om": 52,
      "is": 53,
      "il": 54,
      "id": 55,
      "sa": 56,
      "they": 57,
      "le": 58,
      "im": 59,
      "al": 60,
      "lo": 61,
      "or": 62,
      "her": 63,
      "th": 64,
      "st": 65,
      "ir": 66,
      "at": 67,
      "be": 68,
      "no": 69,
      "hat": 70,
      "ver": 71,
      "you": 72,
      "ut": 73,
      "ke": 74,
      "se": 75,
      "ck": 76,
      "ld": 77,
      "ce": 78,
      "said": 79,
      "ve": 80,
      "so": 81,
      "ri": 82,
      "ily": 83,
      "tim": 84,
      "we": 85,
      "pl": 86,
      "his": 87,
      "wit": 88,
      "am": 89,
      "with": 90,
      "pp": 91,
      "mom": 92,
      "ad": 93,
      "ig": 94,
      "one": 95,
      "lily": 96,
      "un": 97,
      "of": 98,
      "ok": 99,
      "that": 100,
      "ly": 101,
      "day": 102,
      "very": 103,
      "but": 104,
      "li": 105,
      "do": 106,
      "ome": 107,
      "go": 108,
      "ho": 109,
      "ant": 110,
      "ne": 111,
      "up": 112,
      "my": 113,
      "es": 114,
      "bo": 115,
      "play": 116,
      "had": 117,
      "ch": 118,
      "for": 119,
      "all": 120,
      "ro": 121,
      "fe": 122,
      "ould": 123,
      "end": 124,
      "ked": 125,
      "tle": 126,
      "are": 127,
      "happ": 128,
      "want": 129,
      "oun": 130,
      "ge": 131,
      "ent": 132,
      "out": 133,
      "ma": 134,
      "not": 135,
      "there": 136,
      "lit": 137,
      "ound": 138,
      "ther": 139,
      "little": 140,
      "time": 141,
      "ry": 142,
      "ra": 143,
      "ht": 144,
      "happy": 145,
      "sm": 146,
      "big": 147,
      "fri": 148,
      "saw": 149,
      "look": 150,
      "some": 151,
      "friend": 152,
      "ack": 153,
      "thing": 154,
      "ul": 155,
      "ide": 156,
      "were": 157,
      "ug": 158,
      "ved": 159,
      "way": 160,
      "once": 161,
      "sp": 162,
      "whe": 163,
      "car": 164,
      "tom": 165,
      "him": 166,
      "ter": 167,
      "ben": 168,
      "su": 169,
      "el": 170,
      "irl": 171,
      "their": 172,
      "wanted": 173,
      "ill": 174,
      "them": 175,
      "girl": 176,
      "upon": 177,
      "ful": 178,
      "nt": 179,
      "mo": 180,
      "co": 181,
      "can": 182,
      "me": 183,
      "did": 184,
      "hel": 185,
      "smil": 186,
      "have": 187,
      "could": 188,
      "fr": 189,
      "ted": 190,
      "ec": 191,
      "sh": 192,
      "ind": 193,
      "ex": 194,
      "ag": 195,
      "went": 196,
      "ta": 197,
      "new": 198,
      "od": 199,
      "help": 200,
      "friends": 201,
      "nam": 202,
      "what": 203,
      "ard": 204,
      "say": 205,
      "when": 206,
      "ts": 207,
      "um": 208,
      "back": 209,
      "fel": 210,
      "ur": 211,
      "like": 212,
      "wn": 213,
      "from": 214,
      "fun": 215,
      "man": 216,
      "fo": 217,
      "che": 218,
      "ark": 219,
      "too": 220,
      "side": 221,
      "then": 222,
      "ran": 223,
      "ic": 224,
      "ght": 225,
      "jo": 226,
      "every": 227,
      "star": 228,
      "la": 229,
      "timmy": 230,
      "smiled": 231,
      "named": 232,
      "pr": 233,
      "see": 234,
      "loved": 235,
      "sto": 236,
      "ain": 237,
      "toy": 238,
      "now": 239,
      "asked": 240,
      "felt": 241,
      "looked": 242,
      "pe": 243,
      "low": 244,
      "ick": 245,
      "around": 246,
      "how": 247,
      "ab": 248,
      "ame": 249,
      "make": 250,
      "bir": 251,
      "would": 252,
      "ree": 253,
      "boy": 254,
      "wor": 255,
      "other": 256,
      "ong": 257,
      "bird": 258,
      "ice": 259,
      "gr": 260,
      "na": 261,
      "ca": 262,
      "mad": 263,
      "than": 264,
      "op": 265,
      "its": 266,
      "mommy": 267,
      "says": 268,
      "away": 269,
      "ss": 270,
      "toge": 271,
      "dad": 272,
      "together": 273,
      "wat": 274,
      "dd": 275,
      "started": 276,
      "oud": 277,
      "made": 278,
      "something": 279,
      "ight": 280,
      "came": 281,
      "ie": 282,
      "park": 283,
      "good": 284,
      "sad": 285,
      "if": 286,
      "put": 287,
      "ited": 288,
      "who": 289,
      "exc": 290,
      "got": 291,
      "lu": 292,
      "scar": 293,
      "again": 294,
      "mu": 295,
      "home": 296,
      "get": 297,
      "ave": 298,
      "wal": 299,
      "ont": 300,
      "wo": 301,
      "ep": 302,
      "ried": 303,
      "found": 304,
      "pped": 305,
      "dec": 306,
      "qu": 307,
      "more": 308,
      "hug": 309,
      "ure": 310,
      "playing": 311,
      "by": 312,
      "ach": 313,
      "ought": 314,
      "king": 315,
      "po": 316,
      "ll": 317,
      "sam": 318,
      "things": 319,
      "wh": 320,
      "liked": 321,
      "der": 322,
      "your": 323,
      "excited": 324,
      "yes": 325,
      "ous": 326,
      "ny": 327,
      "sha": 328,
      "ided": 329,
      "fa": 330,
      "ty": 331,
      "ara": 332,
      "af": 333,
      "ouse": 334,
      "dog": 335,
      "decided": 336,
      "care": 337,
      "bu": 338,
      "scared": 339,
      "this": 340,
      "ru": 341,
      "down": 342,
      "arn": 343,
      "use": 344,
      "find": 345,
      "take": 346,
      "will": 347,
      "clo": 348,
      "ju": 349,
      "feel": 350,
      "anna": 351,
      "ate": 352,
      "sara": 353,
      "come": 354,
      "ways": 355,
      "our": 356,
      "sor": 357,
      "ang": 358,
      "max": 359,
      "pre": 360,
      "ers": 361,
      "te": 362,
      "always": 363,
      "bb": 364,
      "took": 365,
      "about": 366,
      "toys": 367,
      "ive": 368,
      "spec": 369,
      "ise": 370,
      "didnt": 371,
      "cat": 372,
      "tree": 373,
      "outside": 374,
      "mi": 375,
      "old": 376,
      "ally": 377,
      "thought": 378,
      "ened": 379,
      "ched": 380,
      "learn": 381,
      "room": 382,
      "de": 383,
      "sw": 384,
      "fore": 385,
      "know": 386,
      "ite": 387,
      "ial": 388,
      "laug": 389,
      "sorry": 390,
      "wa": 391,
      "ball": 392,
      "special": 393,
      "run": 394,
      "inside": 395,
      "ged": 396,
      "lets": 397,
      "any": 398,
      "knew": 399,
      "sudd": 400,
      "sudden": 401,
      "ble": 402,
      "dont": 403,
      "ink": 404,
      "house": 405,
      "never": 406,
      "ish": 407,
      "just": 408,
      "us": 409,
      "after": 410,
      "red": 411,
      "suddenly": 412,
      "show": 413,
      "ist": 414,
      "lf": 415,
      "jack": 416,
      "much": 417,
      "led": 418,
      "careful": 419,
      "hand": 420,
      "dre": 421,
      "cle": 422,
      "sun": 423,
      "fin": 424,
      "cre": 425,
      "hed": 426,
      "sk": 427,
      "ven": 428,
      "spo": 429,
      "gave": 430,
      "arm": 431,
      "water": 432,
      "into": 433,
      "tried": 434,
      "long": 435,
      "each": 436,
      "box": 437,
      "ast": 438,
      "told": 439,
      "proud": 440,
      "love": 441,
      "heard": 442,
      "over": 443,
      "pa": 444,
      "tter": 445,
      "read": 446,
      "gre": 447,
      "thank": 448,
      "eat": 449,
      "har": 450,
      "dy": 451,
      "ump": 452,
      "br": 453,
      "cl": 454,
      "pret": 455,
      "pick": 456,
      "played": 457,
      "ear": 458,
      "couldnt": 459,
      "ion": 460,
      "hugged": 461,
      "cause": 462,
      "mia": 463,
      "because": 464,
      "right": 465,
      "off": 466,
      "unt": 467,
      "where": 468,
      "nice": 469,
      "shed": 470,
      "ile": 471,
      "many": 472,
      "com": 473,
      "exp": 474,
      "fly": 475,
      "need": 476,
      "bear": 477,
      "flow": 478,
      "try": 479,
      "small": 480,
      "ting": 481,
      "lad": 482,
      "ving": 483,
      "anim": 484,
      "animal": 485,
      "ac": 486,
      "shin": 487,
      "rabb": 488,
      "oug": 489,
      "ough": 490,
      "ber": 491,
      "until": 492,
      "even": 493,
      "fi": 494,
      "learned": 495,
      "per": 496,
      "self": 497,
      "soon": 498,
      "bed": 499,
      "everyone": 500,
      "kind": 501,
      "iz": 502,
      "bea": 503,
      "better": 504,
      "ket": 505,
      "give": 506,
      "ace": 507,
      "bro": 508,
      "call": 509,
      "vent": 510,
      "pu": 511,
      "best": 512,
      "tur": 513,
      "cy": 514,
      "hur": 515,
      "cks": 516,
      "et": 517,
      "bra": 518,
      "ple": 519,
      "ass": 520,
      "gard": 521,
      "garden": 522,
      "explo": 523,
      "tre": 524,
      "beaut": 525,
      "rea": 526,
      "ol": 527,
      "fle": 528,
      "ao": 529,
      "sky": 530,
      "thanked": 531,
      "jump": 532,
      "under": 533,
      "sho": 534,
      "tru": 535,
      "safe": 536,
      "list": 537,
      "laughed": 538,
      "ase": 539,
      "loud": 540,
      "spot": 541,
      "joy": 542,
      "sur": 543,
      "ft": 544,
      "iful": 545,
      "beautiful": 546,
      "pt": 547,
      "lly": 548,
      "rong": 549,
      "still": 550,
      "lots": 551,
      "animals": 552,
      "fam": 553,
      "ama": 554,
      "win": 555,
      "rain": 556,
      "ning": 557,
      "stay": 558,
      "both": 559,
      "book": 560,
      "joh": 561,
      "mum": 562,
      "ell": 563,
      "john": 564,
      "bad": 565,
      "two": 566,
      "aoe": 567,
      "cu": 568,
      "turn": 569,
      "hard": 570,
      "ople": 571,
      "people": 572,
      "keep": 573,
      "okay": 574,
      "brave": 575,
      "should": 576,
      "lilys": 577,
      "lived": 578,
      "angry": 579,
      "ground": 580,
      "ct": 581,
      "row": 582,
      "lucy": 583,
      "walked": 584,
      "surpr": 585,
      "igh": 586,
      "hurt": 587,
      "flew": 588,
      "family": 589,
      "ished": 590,
      "called": 591,
      "sure": 592,
      "ort": 593,
      "ine": 594,
      "app": 595,
      "share": 596,
      "fast": 597,
      "door": 598,
      "while": 599,
      "kept": 600,
      "real": 601,
      "before": 602,
      "lue": 603,
      "pic": 604,
      "ised": 605,
      "sl": 606,
      "pretty": 607,
      "clean": 608,
      "may": 609,
      "xt": 610,
      "going": 611,
      "lot": 612,
      "clos": 613,
      "next": 614,
      "noise": 615,
      "doll": 616,
      "why": 617,
      "able": 618,
      "shiny": 619,
      "ane": 620,
      "advent": 621,
      "cry": 622,
      "opened": 623,
      "imp": 624,
      "grand": 625,
      "kit": 626,
      "feeling": 627,
      "won": 628,
      "place": 629,
      "illy": 630,
      "explore": 631,
      "dra": 632,
      "also": 633,
      "em": 634,
      "ild": 635,
      "mem": 636,
      "nodd": 637,
      "colo": 638,
      "bob": 639,
      "uck": 640,
      "idea": 641,
      "nodded": 642,
      "mar": 643,
      "lie": 644,
      "has": 645,
      "fish": 646,
      "hear": 647,
      "ied": 648,
      "tal": 649,
      "color": 650,
      "ask": 651,
      "blue": 652,
      "head": 653,
      "clim": 654,
      "face": 655,
      "ies": 656,
      "picked": 657,
      "three": 658,
      "set": 659,
      "walking": 660,
      "smile": 661,
      "work": 662,
      "maybe": 663,
      "being": 664,
      "par": 665,
      "let": 666,
      "less": 667,
      "ture": 668,
      "ess": 669,
      "ring": 670,
      "adventure": 671,
      "listen": 672,
      "bye": 673,
      "looking": 674,
      "hair": 675,
      "finally": 676,
      "vo": 677,
      "iced": 678,
      "think": 679,
      "picture": 680,
      "dif": 681,
      "food": 682,
      "ste": 683,
      "wait": 684,
      "ever": 685,
      "ious": 686,
      "night": 687,
      "les": 688,
      "walk": 689,
      "used": 690,
      "remem": 691,
      "eyes": 692,
      "here": 693,
      "blo": 694,
      "ught": 695,
      "da": 696,
      "flowers": 697,
      "stopped": 698,
      "bl": 699,
      "squ": 700,
      "enjoy": 701,
      "own": 702,
      "great": 703,
      "cook": 704,
      "thats": 705,
      "shout": 706,
      "ries": 707,
      "remember": 708,
      "wonder": 709,
      "mon": 710,
      "quick": 711,
      "year": 712,
      "watch": 713,
      "hands": 714,
      "near": 715,
      "repl": 716,
      "irst": 717,
      "import": 718,
      "slide": 719,
      "noticed": 720,
      "ph": 721,
      "leave": 722,
      "ized": 723,
      "dan": 724,
      "mean": 725,
      "sue": 726,
      "forest": 727,
      "llow": 728,
      "tou": 729,
      "table": 730,
      "stop": 731,
      "sound": 732,
      "amaz": 733,
      "important": 734,
      "bun": 735,
      "follow": 736,
      "tell": 737,
      "ip": 738,
      "mag": 739,
      "stick": 740,
      "cho": 741,
      "cake": 742,
      "showed": 743,
      "boat": 744,
      "truck": 745,
      "mor": 746,
      "fere": 747,
      "gan": 748,
      "differe": 749,
      "swe": 750,
      "replied": 751,
      "bright": 752,
      "sing": 753,
      "voice": 754,
      "cream": 755,
      "swing": 756,
      "mis": 757,
      "goodbye": 758,
      "bow": 759,
      "ond": 760,
      "sarah": 761,
      "rest": 762,
      "please": 763,
      "watched": 764,
      "store": 765,
      "dis": 766,
      "gu": 767,
      "strong": 768,
      "quickly": 769,
      "curi": 770,
      "tor": 771,
      "does": 772,
      "tow": 773,
      "been": 774,
      "stand": 775,
      "flo": 776,
      "rabbit": 777,
      "bit": 778,
      "different": 779,
      "ner": 780,
      "hello": 781,
      "birds": 782,
      "daddy": 783,
      "first": 784,
      "became": 785,
      "ready": 786,
      "high": 787,
      "curious": 788,
      "closer": 789,
      "sand": 790,
      "lil": 791,
      "warm": 792,
      "key": 793,
      "ung": 794,
      "laugh": 795,
      "ummy": 796,
      "dress": 797,
      "open": 798,
      "ten": 799,
      "fro": 800,
      "jane": 801,
      "pie": 802,
      "leep": 803,
      "anymore": 804,
      "fav": 805,
      "rough": 806,
      "pul": 807,
      "pain": 808,
      "lila": 809,
      "grabb": 810,
      "kid": 811,
      "ired": 812,
      "flower": 813,
      "sit": 814,
      "only": 815,
      "light": 816,
      "fire": 817,
      "joe": 818,
      "bunny": 819,
      "grabbed": 820,
      "butter": 821,
      "yel": 822,
      "med": 823,
      "fell": 824,
      "times": 825,
      "ba": 826,
      "dro": 827,
      "isy": 828,
      "rock": 829,
      "cut": 830,
      "chen": 831,
      "kitchen": 832,
      "deli": 833,
      "jumped": 834,
      "ff": 835,
      "pare": 836,
      "ow": 837,
      "glad": 838,
      "ered": 839,
      "ash": 840,
      "helped": 841,
      "brea": 842,
      "cket": 843,
      "top": 844,
      "sees": 845,
      "air": 846,
      "grandma": 847,
      "happened": 848,
      "wel": 849,
      "grass": 850,
      "shouted": 851,
      "prin": 852,
      "rel": 853,
      "dow": 854,
      "brother": 855,
      "yummy": 856,
      "having": 857,
      "reached": 858,
      "bal": 859,
      "story": 860,
      "tommy": 861,
      "really": 862,
      "cont": 863,
      "lady": 864,
      "ster": 865,
      "realized": 866,
      "parent": 867,
      "din": 868,
      "bor": 869,
      "soft": 870,
      "game": 871,
      "draw": 872,
      "through": 873,
      "coming": 874,
      "pretend": 875,
      "piece": 876,
      "favor": 877,
      "zy": 878,
      "favorite": 879,
      "looks": 880,
      "tra": 881,
      "magic": 882,
      "kids": 883,
      "ray": 884,
      "wow": 885,
      "making": 886,
      "done": 887,
      "col": 888,
      "sweet": 889,
      "cars": 890,
      "world": 891,
      "cra": 892,
      "ons": 893,
      "began": 894,
      "himself": 895,
      "prom": 896,
      "sometimes": 897,
      "move": 898,
      "ped": 899,
      "pond": 900,
      "tired": 901,
      "waved": 902,
      "mouse": 903,
      "cked": 904,
      "touch": 905,
      "fill": 906,
      "fix": 907,
      "hold": 908,
      "parents": 909,
      "worry": 910,
      "funny": 911,
      "catch": 912,
      "sn": 913,
      "name": 914,
      "green": 915,
      "cried": 916,
      "blocks": 917,
      "cold": 918,
      "delic": 919,
      "ater": 920,
      "another": 921,
      "seen": 922,
      "ient": 923,
      "oney": 924,
      "farm": 925,
      "pro": 926,
      "cool": 927,
      "hopped": 928,
      "cant": 929,
      "surprise": 930,
      "cor": 931,
      "river": 932,
      "daisy": 933,
      "doing": 934,
      "sally": 935,
      "mess": 936,
      "bab": 937,
      "close": 938,
      "paper": 939,
      "timmys": 940,
      "age": 941,
      "likes": 942,
      "swim": 943,
      "ds": 944,
      "trees": 945,
      "hind": 946,
      "climb": 947,
      "turned": 948,
      "behind": 949,
      "floor": 950,
      "window": 951,
      "lesson": 952,
      "years": 953,
      "frog": 954,
      "wood": 955,
      "snow": 956,
      "cla": 957,
      "wished": 958,
      "bag": 959,
      "ger": 960,
      "dark": 961,
      "ppy": 962,
      "sat": 963,
      "full": 964,
      "slow": 965,
      "wear": 966,
      "andy": 967,
      "running": 968,
      "yellow": 969,
      "pet": 970,
      "worked": 971,
      "sleep": 972,
      "pat": 973,
      "fl": 974,
      "hole": 975,
      "yard": 976,
      "ign": 977,
      "tas": 978,
      "cas": 979,
      "baby": 980,
      "happily": 981,
      "surprised": 982,
      "teddy": 983,
      "carefully": 984,
      "race": 985,
      "sy": 986,
      "jim": 987,
      "bar": 988,
      "remembered": 989,
      "held": 990,
      "butterfly": 991,
      "lost": 992,
      "benny": 993,
      "buy": 994,
      "castle": 995,
      "needed": 996,
      "fair": 997,
      "anything": 998,
      "bug": 999,
      "mat": 1000,
      "chil": 1001,
      "left": 1002,
      "arri": 1003,
      "far": 1004,
      "enjoyed": 1005,
      "wrong": 1006,
      "dren": 1007,
      "duck": 1008,
      "ation": 1009,
      "dream": 1010,
      "children": 1011,
      "tri": 1012,
      "followed": 1013,
      "agre": 1014,
      "gen": 1015,
      "stran": 1016,
      "ined": 1017,
      "billy": 1018,
      "youre": 1019,
      "hung": 1020,
      "wind": 1021,
      "ak": 1022,
      "friendly": 1023,
      "hill": 1024,
      "dir": 1025,
      "vis": 1026,
      "understand": 1027,
      "someone": 1028,
      "ross": 1029,
      "finished": 1030,
      "delicious": 1031,
      "ards": 1032,
      "oken": 1033,
      "tall": 1034,
      "hot": 1035,
      "bot": 1036,
      "might": 1037,
      "herself": 1038,
      "hid": 1039,
      "tr": 1040,
      "inu": 1041,
      "continu": 1042,
      "agreed": 1043,
      "molly": 1044,
      "broken": 1045,
      "zo": 1046,
      "ange": 1047,
      "everywhere": 1048,
      "ings": 1049,
      "else": 1050,
      "cess": 1051,
      "ather": 1052,
      "forgot": 1053,
      "ike": 1054,
      "colors": 1055,
      "land": 1056,
      "amy": 1057,
      "pink": 1058,
      "well": 1059,
      "arrived": 1060,
      "wonderful": 1061,
      "ield": 1062,
      "others": 1063,
      "tight": 1064,
      "build": 1065,
      "jen": 1066,
      "most": 1067,
      "que": 1068,
      "squir": 1069,
      "erous": 1070,
      "filled": 1071,
      "song": 1072,
      "gone": 1073,
      "coun": 1074,
      "fur": 1075,
      "wants": 1076,
      "books": 1077,
      "fight": 1078,
      "asure": 1079,
      "creat": 1080,
      "ches": 1081,
      "squirrel": 1082,
      "everything": 1083,
      "art": 1084,
      "leaves": 1085,
      "fru": 1086,
      "mother": 1087,
      "wi": 1088,
      "continued": 1089,
      "later": 1090,
      "getting": 1091,
      "fall": 1092,
      "ced": 1093,
      "lion": 1094,
      "enough": 1095,
      "break": 1096,
      "morning": 1097,
      "moment": 1098,
      "poin": 1099,
      "stayed": 1100,
      "mama": 1101,
      "oh": 1102,
      "whis": 1103,
      "cookies": 1104,
      "ze": 1105,
      "stu": 1106,
      "asks": 1107,
      "scary": 1108,
      "hungry": 1109,
      "pen": 1110,
      "pes": 1111,
      "today": 1112,
      "ence": 1113,
      "spark": 1114,
      "beach": 1115,
      "wet": 1116,
      "makes": 1117,
      "dr": 1118,
      "trying": 1119,
      "amazing": 1120,
      "smiles": 1121,
      "fas": 1122,
      "ton": 1123,
      "tain": 1124,
      "dinner": 1125,
      "few": 1126,
      "pack": 1127,
      "icy": 1128,
      "tw": 1129,
      "climbed": 1130,
      "bee": 1131,
      "fect": 1132,
      "talk": 1133,
      "listened": 1134,
      "miss": 1135,
      "ot": 1136,
      "hi": 1137,
      "plain": 1138,
      "pictures": 1139,
      "tail": 1140,
      "kno": 1141,
      "mus": 1142,
      "cover": 1143,
      "jill": 1144,
      "white": 1145,
      "perfect": 1146,
      "spl": 1147,
      "roll": 1148,
      "rew": 1149,
      "sis": 1150,
      "clothe": 1151,
      "ballo": 1152,
      "puppy": 1153,
      "brown": 1154,
      "bike": 1155,
      "clothes": 1156,
      "av": 1157,
      "dang": 1158,
      "wall": 1159,
      "ance": 1160,
      "alone": 1161,
      "fox": 1162,
      "sail": 1163,
      "zz": 1164,
      "oup": 1165,
      "brought": 1166,
      "appear": 1167,
      "train": 1168,
      "ated": 1169,
      "strange": 1170,
      "woods": 1171,
      "met": 1172,
      "pulled": 1173,
      "ffy": 1174,
      "grow": 1175,
      "flu": 1176,
      "ride": 1177,
      "sear": 1178,
      "deep": 1179,
      "pur": 1180,
      "plan": 1181,
      "hide": 1182,
      "waited": 1183,
      "hor": 1184,
      "pping": 1185,
      "drag": 1186,
      "moral": 1187,
      "ling": 1188,
      "nap": 1189,
      "gi": 1190,
      "fluffy": 1191,
      "music": 1192,
      "treat": 1193,
      "wasnt": 1194,
      "con": 1195,
      "amazed": 1196,
      "je": 1197,
      "ses": 1198,
      "silly": 1199,
      "lake": 1200,
      "thy": 1201,
      "runs": 1202,
      "towards": 1203,
      "bath": 1204,
      "cloud": 1205,
      "du": 1206,
      "thinks": 1207,
      "field": 1208,
      "living": 1209,
      "flying": 1210,
      "pers": 1211,
      "sc": 1212,
      "belie": 1213,
      "slowly": 1214,
      "visit": 1215,
      "shared": 1216,
      "shes": 1217,
      "ames": 1218,
      "promised": 1219,
      "mind": 1220,
      "ises": 1221,
      "quie": 1222,
      "job": 1223,
      "dolls": 1224,
      "money": 1225,
      "owner": 1226,
      "dance": 1227,
      "luck": 1228,
      "party": 1229,
      "sister": 1230,
      "ctor": 1231,
      "quiet": 1232,
      "faster": 1233,
      "cup": 1234,
      "must": 1235,
      "mr": 1236,
      "worried": 1237,
      "gra": 1238,
      "ele": 1239,
      "pieces": 1240,
      "bran": 1241,
      "igg": 1242,
      "mary": 1243,
      "colorful": 1244,
      "grate": 1245,
      "umb": 1246,
      "grateful": 1247,
      "answ": 1248,
      "gif": 1249,
      "pass": 1250,
      "candy": 1251,
      "chair": 1252,
      "broke": 1253,
      "ased": 1254,
      "bigger": 1255,
      "explain": 1256,
      "reach": 1257,
      "blan": 1258,
      "kis": 1259,
      "twin": 1260,
      "moms": 1261,
      "plant": 1262,
      "ment": 1263,
      "join": 1264,
      "mil": 1265,
      "welcome": 1266,
      "such": 1267,
      "start": 1268,
      "tin": 1269,
      "heav": 1270,
      "cou": 1271,
      "dry": 1272,
      "board": 1273,
      "black": 1274,
      "treasure": 1275,
      "dangerous": 1276,
      "snack": 1277,
      "scream": 1278,
      "ually": 1279,
      "monster": 1280,
      "magical": 1281,
      "tower": 1282,
      "min": 1283,
      "ming": 1284,
      "smart": 1285,
      "outh": 1286,
      "smel": 1287,
      "monkey": 1288,
      "mouth": 1289,
      "dri": 1290,
      "event": 1291,
      "helping": 1292,
      "words": 1293,
      "doctor": 1294,
      "rot": 1295,
      "ose": 1296,
      "across": 1297,
      "princess": 1298,
      "di": 1299,
      "twins": 1300,
      "ves": 1301,
      "stre": 1302,
      "sign": 1303,
      "happen": 1304,
      "dragon": 1305,
      "ja": 1306,
      "threw": 1307,
      "amp": 1308,
      "ourse": 1309,
      "heavy": 1310,
      "dirty": 1311,
      "stepped": 1312,
      "farmer": 1313,
      "bite": 1314,
      "shar": 1315,
      "crying": 1316,
      "same": 1317,
      "ap": 1318,
      "bowl": 1319,
      "heal": 1320,
      "wave": 1321,
      "ng": 1322,
      "believe": 1323,
      "hoped": 1324,
      "plane": 1325,
      "jimmy": 1326,
      "hig": 1327,
      "closed": 1328,
      "mummy": 1329,
      "wag": 1330,
      "bas": 1331,
      "press": 1332,
      "paint": 1333,
      "appeared": 1334,
      "town": 1335,
      "balloon": 1336,
      "stuck": 1337,
      "ident": 1338,
      "mix": 1339,
      "lun": 1340,
      "without": 1341,
      "pow": 1342,
      "button": 1343,
      "feels": 1344,
      "pull": 1345,
      "scho": 1346,
      "mit": 1347,
      "school": 1348,
      "cray": 1349,
      "fairy": 1350,
      "gs": 1351,
      "eating": 1352,
      "wr": 1353,
      "takes": 1354,
      "course": 1355,
      "basket": 1356,
      "child": 1357,
      "iting": 1358,
      "round": 1359,
      "neigh": 1360,
      "wouldnt": 1361,
      "clapped": 1362,
      "gentle": 1363,
      "pushed": 1364,
      "free": 1365,
      "chee": 1366,
      "comfor": 1367,
      "phone": 1368,
      "stood": 1369,
      "val": 1370,
      "pop": 1371,
      "eventually": 1372,
      "higher": 1373,
      "kiss": 1374,
      "teac": 1375,
      "shine": 1376,
      "twe": 1377,
      "teacher": 1378,
      "emma": 1379,
      "blanket": 1380,
      "drove": 1381,
      "ps": 1382,
      "smo": 1383,
      "coin": 1384,
      "along": 1385,
      "swings": 1386,
      "stead": 1387,
      "mine": 1388,
      "moved": 1389,
      "games": 1390,
      "sna": 1391,
      "noises": 1392,
      "str": 1393,
      "cheered": 1394,
      "jour": 1395,
      "wings": 1396,
      "turns": 1397,
      "acc": 1398,
      "wish": 1399,
      "hugs": 1400,
      "mark": 1401,
      "accident": 1402,
      "ary": 1403,
      "ann": 1404,
      "wise": 1405,
      "longer": 1406,
      "throw": 1407,
      "explained": 1408,
      "sang": 1409,
      "late": 1410,
      "ney": 1411,
      "phant": 1412,
      "elephant": 1413,
      "ible": 1414,
      "stone": 1415,
      "neck": 1416,
      "shoes": 1417,
      "instead": 1418,
      "though": 1419,
      "trou": 1420,
      "tiny": 1421,
      "tu": 1422,
      "sea": 1423,
      "fence": 1424,
      "apple": 1425,
      "singing": 1426,
      "del": 1427,
      "ours": 1428,
      "lone": 1429,
      "secre": 1430,
      "stories": 1431,
      "adventures": 1432,
      "stars": 1433,
      "jar": 1434,
      "lunch": 1435,
      "owl": 1436,
      "heart": 1437,
      "shook": 1438,
      "lonely": 1439,
      "nothing": 1440,
      "add": 1441,
      "upset": 1442,
      "hit": 1443,
      "dist": 1444,
      "nee": 1445,
      "taking": 1446,
      "young": 1447,
      "belong": 1448,
      "naught": 1449,
      "rocks": 1450,
      "naughty": 1451,
      "purple": 1452,
      "des": 1453,
      "ship": 1454,
      "pocket": 1455,
      "sammy": 1456,
      "bel": 1457,
      "nearby": 1458,
      "soup": 1459,
      "stree": 1460,
      "fused": 1461,
      "forget": 1462,
      "orange": 1463,
      "exploring": 1464,
      "caught": 1465,
      "res": 1466,
      "whats": 1467,
      "cal": 1468,
      "ountain": 1469,
      "dropped": 1470,
      "bring": 1471,
      "backyard": 1472,
      "shapes": 1473,
      "sli": 1474,
      "swam": 1475,
      "sent": 1476,
      "whenever": 1477,
      "drink": 1478,
      "mail": 1479,
      "woke": 1480,
      "coat": 1481,
      "sunny": 1482,
      "seemed": 1483,
      "body": 1484,
      "daught": 1485,
      "boun": 1486,
      "mitten": 1487,
      "days": 1488,
      "juice": 1489,
      "cow": 1490,
      "part": 1491,
      "shop": 1492,
      "comes": 1493,
      "relie": 1494,
      "ect": 1495,
      "busy": 1496,
      "fit": 1497,
      "bench": 1498,
      "ions": 1499,
      "fing": 1500,
      "driver": 1501,
      "ser": 1502,
      "nose": 1503,
      "street": 1504,
      "cing": 1505,
      "rainbow": 1506,
      "mm": 1507,
      "sounds": 1508,
      "lucky": 1509,
      "arms": 1510,
      "rown": 1511,
      "pig": 1512,
      "sitting": 1513,
      "hu": 1514,
      "wondered": 1515,
      "holding": 1516,
      "band": 1517,
      "pil": 1518,
      "birth": 1519,
      "pot": 1520,
      "ugg": 1521,
      "daughter": 1522,
      "nest": 1523,
      "erful": 1524,
      "sco": 1525,
      "pra": 1526,
      "smell": 1527,
      "promise": 1528,
      "cir": 1529,
      "ier": 1530,
      "birthday": 1531,
      "bottle": 1532,
      "zoom": 1533,
      "sick": 1534,
      "secret": 1535,
      "raid": 1536,
      "afraid": 1537,
      "loves": 1538,
      "sug": 1539,
      "branch": 1540,
      "cute": 1541,
      "ars": 1542,
      "push": 1543,
      "kite": 1544,
      "mach": 1545,
      "ull": 1546,
      "patient": 1547,
      "cer": 1548,
      "peace": 1549,
      "tun": 1550,
      "uni": 1551,
      "gift": 1552,
      "pper": 1553,
      "cheese": 1554,
      "bread": 1555,
      "forever": 1556,
      "touched": 1557,
      "gl": 1558,
      "wand": 1559,
      "grab": 1560,
      "idge": 1561,
      "relieved": 1562,
      "quest": 1563,
      "shell": 1564,
      "life": 1565,
      "spin": 1566,
      "huge": 1567,
      "letter": 1568,
      "wra": 1569,
      "carry": 1570,
      "bucket": 1571,
      "honey": 1572,
      "covered": 1573,
      "live": 1574,
      "gest": 1575,
      "inte": 1576,
      "hope": 1577,
      "hey": 1578,
      "interest": 1579,
      "vel": 1580,
      "swimming": 1581,
      "orn": 1582,
      "gigg": 1583,
      "onto": 1584,
      "gives": 1585,
      "exciting": 1586,
      "wont": 1587,
      "bubb": 1588,
      "craw": 1589,
      "creature": 1590,
      "cha": 1591,
      "net": 1592,
      "journey": 1593,
      "laughing": 1594,
      "kick": 1595,
      "bru": 1596,
      "bush": 1597,
      "imag": 1598,
      "ward": 1599,
      "milk": 1600,
      "ducks": 1601,
      "act": 1602,
      "sunshine": 1603,
      "jenny": 1604,
      "pudd": 1605,
      "ian": 1606,
      "emily": 1607,
      "ness": 1608,
      "wom": 1609,
      "hop": 1610,
      "puts": 1611,
      "cozy": 1612,
      "woman": 1613,
      "mittens": 1614,
      "eas": 1615,
      "neighbor": 1616,
      "pointed": 1617,
      "suc": 1618,
      "watching": 1619,
      "colle": 1620,
      "cave": 1621,
      "roar": 1622,
      "snake": 1623,
      "smiling": 1624,
      "road": 1625,
      "fan": 1626,
      "sharp": 1627,
      "ens": 1628,
      "accidentally": 1629,
      "eg": 1630,
      "anyone": 1631,
      "talked": 1632,
      "word": 1633,
      "proble": 1634,
      "problem": 1635,
      "bought": 1636,
      "stor": 1637,
      "these": 1638,
      "gather": 1639,
      "healthy": 1640,
      "apples": 1641,
      "ade": 1642,
      "searched": 1643,
      "ize": 1644,
      "trouble": 1645,
      "sandwi": 1646,
      "wide": 1647,
      "rope": 1648,
      "bur": 1649,
      "splash": 1650,
      "irt": 1651,
      "circle": 1652,
      "interesting": 1653,
      "toms": 1654,
      "rat": 1655,
      "clouds": 1656,
      "nic": 1657,
      "crayons": 1658,
      "storm": 1659,
      "lar": 1660,
      "ently": 1661,
      "clever": 1662,
      "whi": 1663,
      "inv": 1664,
      "tasty": 1665,
      "ones": 1666,
      "person": 1667,
      "smelled": 1668,
      "pile": 1669,
      "spoon": 1670,
      "matter": 1671,
      "respec": 1672,
      "wheel": 1673,
      "shining": 1674,
      "test": 1675,
      "log": 1676,
      "wash": 1677,
      "path": 1678,
      "shelf": 1679,
      "front": 1680,
      "organ": 1681,
      "rose": 1682,
      "snowman": 1683,
      "feather": 1684,
      "spid": 1685,
      "ching": 1686,
      "eag": 1687,
      "comfortable": 1688,
      "zoo": 1689,
      "vill": 1690,
      "which": 1691,
      "prot": 1692,
      "tims": 1693,
      "mud": 1694,
      "bark": 1695,
      "spotted": 1696,
      "pract": 1697,
      "screamed": 1698,
      "mir": 1699,
      "ek": 1700,
      "tries": 1701,
      "dest": 1702,
      "fruit": 1703,
      "valu": 1704,
      "seat": 1705,
      "ia": 1706,
      "lock": 1707,
      "ban": 1708,
      "puzz": 1709,
      "asleep": 1710,
      "myster": 1711,
      "present": 1712,
      "gy": 1713,
      "lovely": 1714,
      "epend": 1715,
      "answer": 1716,
      "worm": 1717,
      "thin": 1718,
      "danced": 1719,
      "teach": 1720,
      "rolled": 1721,
      "card": 1722,
      "sie": 1723,
      "minut": 1724,
      "wild": 1725,
      "goes": 1726,
      "berries": 1727,
      "gently": 1728,
      "horse": 1729,
      "jake": 1730,
      "orm": 1731,
      "fli": 1732,
      "confused": 1733,
      "pan": 1734,
      "lis": 1735,
      "whole": 1736,
      "mel": 1737,
      "forgive": 1738,
      "tent": 1739,
      "sharing": 1740,
      "wearing": 1741,
      "places": 1742,
      "vie": 1743,
      "respect": 1744,
      "step": 1745,
      "rubb": 1746,
      "boys": 1747,
      "ular": 1748,
      "corner": 1749,
      "calm": 1750,
      "impress": 1751,
      "tee": 1752,
      "chick": 1753,
      "giant": 1754,
      "pill": 1755,
      "rude": 1756,
      "rich": 1757,
      "teeth": 1758,
      "dirt": 1759,
      "slid": 1760,
      "string": 1761,
      "grandpa": 1762,
      "tool": 1763,
      "mas": 1764,
      "ob": 1765,
      "oce": 1766,
      "ocean": 1767,
      "cookie": 1768,
      "bell": 1769,
      "corn": 1770,
      "drive": 1771,
      "spent": 1772,
      "lay": 1773,
      "tasted": 1774,
      "dogs": 1775,
      "pretended": 1776,
      "past": 1777,
      "faces": 1778,
      "kitty": 1779,
      "furry": 1780,
      "delight": 1781,
      "pour": 1782,
      "lisa": 1783,
      "inc": 1784,
      "nut": 1785,
      "bugs": 1786,
      "lace": 1787,
      "tomor": 1788,
      "oven": 1789,
      "picnic": 1790,
      "tomorrow": 1791,
      "last": 1792,
      "machine": 1793,
      "fighting": 1794,
      "feet": 1795,
      "ladder": 1796,
      "ator": 1797,
      "char": 1798,
      "stret": 1799,
      "shy": 1800,
      "shr": 1801,
      "ti": 1802,
      "oth": 1803,
      "kets": 1804,
      "seek": 1805,
      "peaceful": 1806,
      "umber": 1807,
      "hang": 1808,
      "tea": 1809,
      "helpful": 1810,
      "finish": 1811,
      "ity": 1812,
      "stair": 1813,
      "remind": 1814,
      "true": 1815,
      "sack": 1816,
      "fold": 1817,
      "spe": 1818,
      "tid": 1819,
      "spread": 1820,
      "building": 1821,
      "spider": 1822,
      "peter": 1823,
      "sque": 1824,
      "chocol": 1825,
      "smooth": 1826,
      "couch": 1827,
      "joke": 1828,
      "spit": 1829,
      "ashed": 1830,
      "blew": 1831,
      "grace": 1832,
      "foot": 1833,
      "poli": 1834,
      "talking": 1835,
      "hiding": 1836,
      "erly": 1837,
      "necklace": 1838,
      "paw": 1839,
      "knee": 1840,
      "write": 1841,
      "ighed": 1842,
      "mountain": 1843,
      "trip": 1844,
      "sol": 1845,
      "wore": 1846,
      "chased": 1847,
      "leaf": 1848,
      "puddle": 1849,
      "cloth": 1850,
      "pool": 1851,
      "songs": 1852,
      "embar": 1853,
      "shake": 1854,
      "den": 1855,
      "crab": 1856,
      "kin": 1857,
      "embarr": 1858,
      "carrot": 1859,
      "waiting": 1860,
      "ert": 1861,
      "cannot": 1862,
      "village": 1863,
      "banan": 1864,
      "embarrass": 1865,
      "hum": 1866,
      "trust": 1867,
      "cord": 1868,
      "fred": 1869,
      "selfish": 1870,
      "cur": 1871,
      "treats": 1872,
      "chocolate": 1873,
      "taste": 1874,
      "rex": 1875,
      "ye": 1876,
      "cage": 1877,
      "large": 1878,
      "cross": 1879,
      "ipped": 1880,
      "colour": 1881,
      "lves": 1882,
      "whistle": 1883,
      "prince": 1884,
      "ult": 1885,
      "rots": 1886,
      "tidy": 1887,
      "stir": 1888,
      "barked": 1889,
      "bus": 1890,
      "cele": 1891,
      "stra": 1892,
      "count": 1893,
      "spray": 1894,
      "tv": 1895,
      "line": 1896,
      "fixed": 1897,
      "celebr": 1898,
      "shirt": 1899,
      "alice": 1900,
      "umpy": 1901,
      "scre": 1902,
      "tie": 1903,
      "moon": 1904,
      "os": 1905,
      "oin": 1906,
      "creative": 1907,
      "sup": 1908,
      "jung": 1909,
      "deter": 1910,
      "za": 1911,
      "carrots": 1912,
      "pin": 1913,
      "mmer": 1914,
      "asha": 1915,
      "missed": 1916,
      "sticks": 1917,
      "jungle": 1918,
      "jumping": 1919,
      "hears": 1920,
      "kitten": 1921,
      "bens": 1922,
      "elly": 1923,
      "coura": 1924,
      "embarrassed": 1925,
      "appoin": 1926,
      "forward": 1927,
      "witch": 1928,
      "johnny": 1929,
      "landed": 1930,
      "gray": 1931,
      "hero": 1932,
      "disappoin": 1933,
      "fre": 1934,
      "protect": 1935,
      "clear": 1936,
      "sour": 1937,
      "hone": 1938,
      "cop": 1939,
      "almost": 1940,
      "tells": 1941,
      "plate": 1942,
      "decor": 1943,
      "knocked": 1944,
      "block": 1945,
      "meet": 1946,
      "jam": 1947,
      "legs": 1948,
      "robot": 1949,
      "grew": 1950,
      "mic": 1951,
      "emp": 1952,
      "breath": 1953,
      "gas": 1954,
      "cape": 1955,
      "brush": 1956,
      "ashamed": 1957,
      "sheep": 1958,
      "vege": 1959,
      "vegetable": 1960,
      "glow": 1961,
      "honest": 1962,
      "ending": 1963,
      "empty": 1964,
      "mead": 1965,
      "police": 1966,
      "meadow": 1967,
      "save": 1968,
      "jog": 1969,
      "stairs": 1970,
      "pas": 1971,
      "pay": 1972,
      "tightly": 1973,
      "gold": 1974,
      "warn": 1975,
      "gets": 1976,
      "polit": 1977,
      "jewel": 1978,
      "success": 1979,
      "nods": 1980,
      "understood": 1981,
      "yelled": 1982,
      "gun": 1983,
      "disappointed": 1984,
      "polite": 1985,
      "meant": 1986,
      "sau": 1987,
      "hours": 1988,
      "usu": 1989,
      "jelly": 1990,
      "pillow": 1991,
      "hospit": 1992,
      "carried": 1993,
      "hospital": 1994,
      "lemon": 1995,
      "snacks": 1996,
      "piz": 1997,
      "spicy": 1998,
      "frustr": 1999,
      "rag": 2000,
      "sparkly": 2001,
      "fear": 2002,
      "thankful": 2003,
      "poor": 2004,
      "aoei": 2005,
      "ken": 2006,
      "ank": 2007,
      "chew": 2008,
      "bored": 2009,
      "balls": 2010,
      "ants": 2011,
      "easy": 2012,
      "vous": 2013,
      "seed": 2014,
      "hidden": 2015,
      "plants": 2016,
      "van": 2017,
      "sage": 2018,
      "powerful": 2019,
      "flies": 2020,
      "cr": 2021,
      "standing": 2022,
      "drew": 2023,
      "generous": 2024,
      "bat": 2025,
      "waves": 2026,
      "bedroom": 2027,
      "tears": 2028,
      "leo": 2029,
      "feed": 2030,
      "knowing": 2031,
      "blow": 2032,
      "puzzle": 2033,
      "mysterious": 2034,
      "ni": 2035,
      "leta": 2036,
      "sighed": 2037,
      "taught": 2038,
      "pizza": 2039,
      "pri": 2040,
      "wolf": 2041,
      "shore": 2042,
      "frustrated": 2043,
      "scarf": 2044,
      "packed": 2045,
      "group": 2046,
      "returned": 2047,
      "cater": 2048,
      "tic": 2049,
      "caterpill": 2050,
      "mined": 2051,
      "determined": 2052,
      "kissed": 2053,
      "fla": 2054,
      "messy": 2055,
      "sleepy": 2056,
      "bul": 2057,
      "note": 2058,
      "finger": 2059,
      "grumpy": 2060,
      "dino": 2061,
      "closet": 2062,
      "cries": 2063,
      "bubbles": 2064,
      "whisper": 2065,
      "fancy": 2066,
      "pir": 2067,
      "case": 2068,
      "dle": 2069,
      "rad": 2070,
      "minutes": 2071,
      "ugly": 2072,
      "sold": 2073,
      "fig": 2074,
      "sandwich": 2075,
      "mid": 2076,
      "yourself": 2077,
      "nervous": 2078,
      "berry": 2079,
      "bridge": 2080,
      "keeper": 2081,
      "ita": 2082,
      "spoil": 2083,
      "towel": 2084,
      "often": 2085,
      "gate": 2086,
      "excite": 2087,
      "collect": 2088,
      "working": 2089,
      "chest": 2090,
      "twirl": 2091,
      "space": 2092,
      "passed": 2093,
      "crown": 2094,
      "tweet": 2095,
      "flag": 2096,
      "gathered": 2097,
      "tig": 2098,
      "liz": 2099,
      "week": 2100,
      "hopping": 2101,
      "scis": 2102,
      "scissor": 2103,
      "ignor": 2104,
      "era": 2105,
      "saur": 2106,
      "scissors": 2107,
      "ensive": 2108,
      "expensive": 2109,
      "cand": 2110,
      "ror": 2111,
      "fine": 2112,
      "form": 2113,
      "leg": 2114,
      "girls": 2115,
      "dancing": 2116,
      "lif": 2117,
      "known": 2118,
      "caterpillar": 2119,
      "fil": 2120,
      "boring": 2121,
      "allow": 2122,
      "dinosaur": 2123,
      "vase": 2124,
      "taken": 2125,
      "saved": 2126,
      "picks": 2127,
      "rank": 2128,
      "excitement": 2129,
      "answered": 2130,
      "wake": 2131,
      "fu": 2132,
      "class": 2133,
      "boss": 2134,
      "clown": 2135,
      "deer": 2136,
      "pair": 2137,
      "queen": 2138,
      "change": 2139,
      "mistake": 2140,
      "susie": 2141,
      "astic": 2142,
      "wagged": 2143,
      "licked": 2144,
      "ned": 2145,
      "exam": 2146,
      "middle": 2147,
      "usual": 2148,
      "pec": 2149,
      "fruits": 2150,
      "match": 2151,
      "giggled": 2152,
      "ates": 2153,
      "bone": 2154,
      "glass": 2155,
      "ially": 2156,
      "asking": 2157,
      "number": 2158,
      "pleased": 2159,
      "rocket": 2160,
      "ella": 2161,
      "medic": 2162,
      "nel": 2163,
      "rid": 2164,
      "illed": 2165,
      "sugar": 2166,
      "knight": 2167,
      "espec": 2168,
      "especially": 2169,
      "wip": 2170,
      "moving": 2171,
      "fake": 2172,
      "painting": 2173,
      "flut": 2174,
      "lazy": 2175,
      "drawing": 2176,
      "smelly": 2177,
      "lying": 2178,
      "sight": 2179,
      "father": 2180,
      "vegetables": 2181,
      "glue": 2182,
      "bobby": 2183,
      "walks": 2184,
      "lose": 2185,
      "mirror": 2186,
      "stuff": 2187,
      "distance": 2188,
      "medicine": 2189,
      "chir": 2190,
      "drum": 2191,
      "sweetie": 2192,
      "soar": 2193,
      "bill": 2194,
      "order": 2195,
      "iness": 2196,
      "ird": 2197,
      "cri": 2198,
      "eggs": 2199,
      "calling": 2200,
      "sting": 2201,
      "tape": 2202,
      "ging": 2203,
      "eld": 2204,
      "weak": 2205,
      "disappeared": 2206,
      "locked": 2207,
      "playground": 2208,
      "tory": 2209,
      "dish": 2210,
      "become": 2211,
      "bake": 2212,
      "nod": 2213,
      "toes": 2214,
      "feathers": 2215,
      "cap": 2216,
      "son": 2217,
      "lead": 2218,
      "rela": 2219,
      "boo": 2220,
      "ruined": 2221,
      "splashed": 2222,
      "relax": 2223,
      "aged": 2224,
      "yours": 2225,
      "bathroom": 2226,
      "penny": 2227,
      "skipped": 2228,
      "sell": 2229,
      "thanks": 2230,
      "measure": 2231,
      "horn": 2232,
      "drank": 2233,
      "noisy": 2234,
      "stones": 2235,
      "cher": 2236,
      "incred": 2237,
      "yal": 2238,
      "giving": 2239,
      "famous": 2240,
      "pete": 2241,
      "questions": 2242,
      "yo": 2243,
      "pray": 2244,
      "lamp": 2245,
      "check": 2246,
      "shows": 2247,
      "izzy": 2248,
      "decide": 2249,
      "juicy": 2250,
      "brothers": 2251,
      "suggest": 2252,
      "swan": 2253,
      "motor": 2254,
      "four": 2255,
      "lea": 2256,
      "cro": 2257,
      "dol": 2258,
      "aser": 2259,
      "content": 2260,
      "elderly": 2261,
      "dig": 2262,
      "zed": 2263,
      "using": 2264,
      "ga": 2265,
      "itch": 2266,
      "maxs": 2267,
      "mandy": 2268,
      "dolph": 2269,
      "team": 2270,
      "eager": 2271,
      "loyal": 2272,
      "tro": 2273,
      "tub": 2274,
      "tiger": 2275,
      "mrs": 2276,
      "illi": 2277,
      "incredible": 2278,
      "wro": 2279,
      "wrote": 2280,
      "those": 2281,
      "sailed": 2282,
      "zip": 2283,
      "rare": 2284,
      "cleaned": 2285,
      "soap": 2286,
      "adventur": 2287,
      "coins": 2288,
      "organized": 2289,
      "sil": 2290,
      "borrow": 2291,
      "branches": 2292,
      "micro": 2293,
      "alous": 2294,
      "jealous": 2295,
      "chang": 2296,
      "extra": 2297,
      "flash": 2298,
      "figure": 2299,
      "wha": 2300,
      "umbled": 2301,
      "needs": 2302,
      "tag": 2303,
      "chase": 2304,
      "wned": 2305,
      "ellie": 2306,
      "adventurous": 2307,
      "pump": 2308,
      "gue": 2309,
      "hurts": 2310,
      "discovered": 2311,
      "chicken": 2312,
      "lid": 2313,
      "mighty": 2314,
      "straw": 2315,
      "vest": 2316,
      "gara": 2317,
      "ating": 2318,
      "garage": 2319,
      "trucks": 2320,
      "au": 2321,
      "ero": 2322,
      "realised": 2323,
      "runk": 2324,
      "colourful": 2325,
      "asing": 2326,
      "happening": 2327,
      "supp": 2328,
      "offered": 2329,
      "balance": 2330,
      "eye": 2331,
      "smoke": 2332,
      "louder": 2333,
      "sadly": 2334,
      "bobo": 2335,
      "snugg": 2336,
      "cil": 2337,
      "hose": 2338,
      "coco": 2339,
      "ears": 2340,
      "aunt": 2341,
      "fic": 2342,
      "unique": 2343,
      "wrapped": 2344,
      "turtle": 2345,
      "selves": 2346,
      "toug": 2347,
      "ona": 2348,
      "vi": 2349,
      "map": 2350,
      "lifted": 2351,
      "kni": 2352,
      "knife": 2353,
      "kindness": 2354,
      "guess": 2355,
      "bottom": 2356,
      "diffic": 2357,
      "weird": 2358,
      "dizzy": 2359,
      "stri": 2360,
      "pencil": 2361,
      "ately": 2362,
      "banana": 2363,
      "uncle": 2364,
      "crawled": 2365,
      "fright": 2366,
      "dolphin": 2367,
      "imed": 2368,
      "learning": 2369,
      "managed": 2370,
      "thick": 2371,
      "bounce": 2372,
      "unusual": 2373,
      "lift": 2374,
      "eng": 2375,
      "pal": 2376,
      "difficult": 2377,
      "buzz": 2378,
      "barn": 2379,
      "market": 2380,
      "squee": 2381,
      "bella": 2382,
      "men": 2383,
      "vide": 2384,
      "city": 2385,
      "sword": 2386,
      "laughs": 2387,
      "record": 2388,
      "boxes": 2389,
      "annas": 2390,
      "harder": 2391,
      "twee": 2392,
      "added": 2393,
      "pumpkin": 2394,
      "tough": 2395,
      "apo": 2396,
      "ddy": 2397,
      "bloom": 2398,
      "island": 2399,
      "choose": 2400,
      "cab": 2401,
      "edge": 2402,
      "cheerful": 2403,
      "bby": 2404,
      "grown": 2405,
      "whale": 2406,
      "hats": 2407,
      "balloons": 2408,
      "spun": 2409,
      "apolog": 2410,
      "skin": 2411,
      "pointing": 2412,
      "favour": 2413,
      "buttons": 2414,
      "guit": 2415,
      "search": 2416,
      "depend": 2417,
      "dave": 2418,
      "pee": 2419,
      "norm": 2420,
      "comple": 2421,
      "bald": 2422,
      "swee": 2423,
      "yell": 2424,
      "shape": 2425,
      "falls": 2426,
      "impressed": 2427,
      "agree": 2428,
      "stubb": 2429,
      "brilli": 2430,
      "angel": 2431,
      "goat": 2432,
      "clay": 2433,
      "belonged": 2434,
      "enjoying": 2435,
      "ail": 2436,
      "excitedly": 2437,
      "saying": 2438,
      "loudly": 2439,
      "circles": 2440,
      "favourite": 2441,
      "cudd": 2442,
      "dreamed": 2443,
      "against": 2444,
      "brilliant": 2445,
      "already": 2446,
      "movie": 2447,
      "trunk": 2448,
      "means": 2449,
      "courage": 2450,
      "scare": 2451,
      "suit": 2452,
      "safely": 2453,
      "birdie": 2454,
      "fool": 2455,
      "batter": 2456,
      "bossy": 2457,
      "ilt": 2458,
      "ature": 2459,
      "meal": 2460,
      "normal": 2461,
      "helps": 2462,
      "shadow": 2463,
      "tweety": 2464,
      "shark": 2465,
      "cabin": 2466,
      "clap": 2467,
      "guitar": 2468,
      "lights": 2469,
      "stubborn": 2470,
      "houses": 2471,
      "happiness": 2472,
      "anc": 2473,
      "notice": 2474,
      "hun": 2475,
      "fat": 2476,
      "sec": 2477,
      "successful": 2478,
      "proudly": 2479,
      "crayon": 2480,
      "ination": 2481,
      "ducky": 2482,
      "frightened": 2483,
      "nemo": 2484,
      "breakfast": 2485,
      "foolish": 2486,
      "nur": 2487,
      "ancient": 2488,
      "study": 2489,
      "slipped": 2490,
      "terri": 2491,
      "knows": 2492,
      "sca": 2493,
      "snee": 2494,
      "law": 2495,
      "wagon": 2496,
      "rh": 2497,
      "valuable": 2498,
      "escape": 2499,
      "fridge": 2500,
      "obed": 2501,
      "compet": 2502,
      "fier": 2503,
      "harm": 2504,
      "invited": 2505,
      "toma": 2506,
      "bees": 2507,
      "sty": 2508,
      "nosy": 2509,
      "acce": 2510,
      "libr": 2511,
      "port": 2512,
      "delicate": 2513,
      "competit": 2514,
      "dough": 2515,
      "jac": 2516,
      "walls": 2517,
      "shells": 2518,
      "useful": 2519,
      "lola": 2520,
      "rubbed": 2521,
      "stream": 2522,
      "dads": 2523,
      "obedient": 2524,
      "aced": 2525,
      "dead": 2526,
      "wiped": 2527,
      "roof": 2528,
      "graceful": 2529,
      "lean": 2530,
      "fierce": 2531,
      "stru": 2532,
      "dependable": 2533,
      "office": 2534,
      "cam": 2535,
      "dreams": 2536,
      "sounded": 2537,
      "fresh": 2538,
      "wing": 2539,
      "soph": 2540,
      "bags": 2541,
      "beep": 2542,
      "cart": 2543,
      "nicely": 2544,
      "crack": 2545,
      "excla": 2546,
      "gem": 2547,
      "tools": 2548,
      "sal": 2549,
      "mixed": 2550,
      "geor": 2551,
      "oc": 2552,
      "fingers": 2553,
      "weal": 2554,
      "exclaimed": 2555,
      "smaller": 2556,
      "rode": 2557,
      "bitter": 2558,
      "tele": 2559,
      "arrow": 2560,
      "kinds": 2561,
      "rub": 2562,
      "fountain": 2563,
      "sams": 2564,
      "earth": 2565,
      "abo": 2566,
      "suggested": 2567,
      "counted": 2568,
      "above": 2569,
      "scrat": 2570,
      "poured": 2571,
      "toby": 2572,
      "pi": 2573,
      "jolly": 2574,
      "design": 2575,
      "patch": 2576,
      "steal": 2577,
      "spinning": 2578,
      "practice": 2579,
      "showing": 2580,
      "cleaning": 2581,
      "stumbled": 2582,
      "ado": 2583,
      "explored": 2584,
      "stove": 2585,
      "guard": 2586,
      "frag": 2587,
      "rescu": 2588,
      "thoughtful": 2589,
      "print": 2590,
      "playful": 2591,
      "bushes": 2592,
      "egg": 2593,
      "independ": 2594,
      "orig": 2595,
      "adm": 2596,
      "delighted": 2597,
      "beak": 2598,
      "admired": 2599,
      "wards": 2600,
      "themselves": 2601,
      "brightly": 2602,
      "dge": 2603,
      "built": 2604,
      "snif": 2605,
      "mes": 2606,
      "twig": 2607,
      "hes": 2608,
      "fragile": 2609,
      "seem": 2610,
      "boats": 2611,
      "changed": 2612,
      "mike": 2613,
      "stronger": 2614,
      "robe": 2615,
      "lol": 2616,
      "bean": 2617,
      "ges": 2618,
      "shone": 2619,
      "ured": 2620,
      "inal": 2621,
      "dom": 2622,
      "reli": 2623,
      "bears": 2624,
      "reminded": 2625,
      "lee": 2626,
      "kicked": 2627,
      "tem": 2628,
      "popcorn": 2629,
      "whispered": 2630,
      "handed": 2631,
      "clu": 2632,
      "vice": 2633,
      "dove": 2634,
      "yuck": 2635,
      "wrap": 2636,
      "post": 2637,
      "bled": 2638,
      "stat": 2639,
      "power": 2640,
      "tered": 2641,
      "bump": 2642,
      "thunder": 2643,
      "tummy": 2644,
      "ering": 2645,
      "original": 2646,
      "raced": 2647,
      "spoiled": 2648,
      "reliable": 2649,
      "enorm": 2650,
      "unknown": 2651,
      "enormous": 2652,
      "joined": 2653,
      "diam": 2654,
      "diamond": 2655,
      "tunnel": 2656,
      "croco": 2657,
      "ren": 2658,
      "erry": 2659,
      "hammer": 2660,
      "hoop": 2661,
      "load": 2662,
      "half": 2663,
      "spend": 2664,
      "parrot": 2665,
      "solve": 2666,
      "salad": 2667,
      "brace": 2668,
      "yarn": 2669,
      "independent": 2670,
      "reg": 2671,
      "metal": 2672,
      "george": 2673,
      "cats": 2674,
      "crocod": 2675,
      "radi": 2676,
      "chose": 2677,
      "yet": 2678,
      "hay": 2679,
      "cone": 2680,
      "painted": 2681,
      "statu": 2682,
      "marble": 2683,
      "sink": 2684,
      "glo": 2685,
      "spring": 2686,
      "stup": 2687,
      "stupid": 2688,
      "joey": 2689,
      "anut": 2690,
      "peanut": 2691,
      "allowed": 2692,
      "rushed": 2693,
      "memor": 2694,
      "hairy": 2695,
      "kim": 2696,
      "serious": 2697,
      "chirp": 2698,
      "finding": 2699,
      "pota": 2700,
      "fed": 2701,
      "clum": 2702,
      "leaving": 2703,
      "holds": 2704,
      "lolli": 2705,
      "wealthy": 2706,
      "acorn": 2707,
      "thinking": 2708,
      "compass": 2709,
      "tank": 2710,
      "forth": 2711,
      "beetle": 2712,
      "ery": 2713,
      "telling": 2714,
      "goose": 2715,
      "polly": 2716,
      "gasped": 2717,
      "wed": 2718,
      "noon": 2719,
      "lollipop": 2720,
      "opens": 2721,
      "square": 2722,
      "sleeping": 2723,
      "picking": 2724,
      "hen": 2725,
      "bble": 2726,
      "stal": 2727,
      "ines": 2728,
      "nature": 2729,
      "march": 2730,
      "thirst": 2731,
      "gum": 2732,
      "strugg": 2733,
      "ugged": 2734,
      "guil": 2735,
      "guilty": 2736,
      "pige": 2737,
      "aoeyes": 2738,
      "camera": 2739,
      "toast": 2740,
      "ended": 2741,
      "iver": 2742,
      "velo": 2743,
      "view": 2744,
      "clumsy": 2745,
      "kay": 2746,
      "cube": 2747,
      "terrible": 2748,
      "stage": 2749,
      "moder": 2750,
      "lives": 2751,
      "friendship": 2752,
      "vet": 2753,
      "nurse": 2754,
      "washed": 2755,
      "flex": 2756,
      "screen": 2757,
      "rug": 2758,
      "envelo": 2759,
      "speed": 2760,
      "regular": 2761,
      "clock": 2762,
      "deliver": 2763,
      "popular": 2764,
      "umbers": 2765,
      "sauce": 2766,
      "uring": 2767,
      "pon": 2768,
      "ya": 2769,
      "create": 2770,
      "roy": 2771,
      "missing": 2772,
      "super": 2773,
      "jacks": 2774,
      "searching": 2775,
      "nobody": 2776,
      "host": 2777,
      "wheels": 2778,
      "thirsty": 2779,
      "verse": 2780,
      "advice": 2781,
      "five": 2782,
      "dull": 2783,
      "meow": 2784,
      "fort": 2785,
      "collec": 2786,
      "ribb": 2787,
      "ale": 2788,
      "tti": 2789,
      "driving": 2790,
      "aoewhat": 2791,
      "doesnt": 2792,
      "pup": 2793,
      "compassion": 2794,
      "stack": 2795,
      "ingred": 2796,
      "careless": 2797,
      "ingredient": 2798,
      "spots": 2799,
      "rec": 2800,
      "ley": 2801,
      "sparkled": 2802,
      "modern": 2803,
      "grandmas": 2804,
      "crazy": 2805,
      "hunter": 2806,
      "dreaming": 2807,
      "shocked": 2808,
      "aras": 2809,
      "impressive": 2810,
      "cran": 2811,
      "persist": 2812,
      "cane": 2813,
      "barber": 2814,
      "flexible": 2815,
      "doors": 2816,
      "hetti": 2817,
      "aghetti": 2818,
      "spaghetti": 2819,
      "si": 2820,
      "guin": 2821,
      "drop": 2822,
      "penguin": 2823,
      "rise": 2824,
      "shiver": 2825,
      "stops": 2826,
      "pirate": 2827,
      "tied": 2828,
      "numbers": 2829,
      "ordin": 2830,
      "sne": 2831,
      "rac": 2832,
      "biggest": 2833,
      "carrying": 2834,
      "ordinary": 2835,
      "destroy": 2836,
      "hurry": 2837,
      "tern": 2838,
      "ither": 2839,
      "ject": 2840,
      "ations": 2841,
      "jacket": 2842,
      "reward": 2843,
      "engine": 2844,
      "stranger": 2845,
      "atta": 2846,
      "crocodile": 2847,
      "rella": 2848,
      "towers": 2849,
      "warned": 2850,
      "desk": 2851,
      "enth": 2852,
      "paul": 2853,
      "discover": 2854,
      "seeds": 2855,
      "ience": 2856,
      "reading": 2857,
      "umbrella": 2858,
      "illa": 2859,
      "lish": 2860,
      "peeked": 2861,
      "truth": 2862,
      "cheap": 2863,
      "ghost": 2864,
      "alex": 2865,
      "turkey": 2866,
      "avo": 2867,
      "sses": 2868,
      "usi": 2869,
      "flashlight": 2870,
      "enthusi": 2871,
      "early": 2872,
      "bri": 2873,
      "statue": 2874,
      "spilled": 2875,
      "pattern": 2876,
      "travel": 2877,
      "fork": 2878,
      "windows": 2879,
      "rece": 2880,
      "prize": 2881,
      "sorts": 2882,
      "serve": 2883,
      "steps": 2884,
      "crystal": 2885,
      "handle": 2886,
      "bin": 2887,
      "env": 2888,
      "ages": 2889,
      "aoeleta": 2890,
      "intell": 2891,
      "goal": 2892,
      "imagined": 2893,
      "intellig": 2894,
      "comput": 2895,
      "ingredients": 2896,
      "given": 2897,
      "ahead": 2898,
      "mias": 2899,
      "mailbox": 2900,
      "pepper": 2901,
      "pale": 2902,
      "bent": 2903,
      "humble": 2904,
      "shut": 2905,
      "aid": 2906,
      "yay": 2907,
      "lions": 2908,
      "bull": 2909,
      "saras": 2910,
      "envelope": 2911,
      "shad": 2912,
      "thie": 2913,
      "torn": 2914,
      "scale": 2915,
      "placed": 2916,
      "butterflies": 2917,
      "counting": 2918,
      "pian": 2919,
      "spoke": 2920,
      "youll": 2921,
      "harmless": 2922,
      "inde": 2923,
      "sailor": 2924,
      "persistent": 2925,
      "octop": 2926,
      "couldna": 2927,
      "scat": 2928,
      "pretending": 2929,
      "growing": 2930,
      "slides": 2931,
      "crane": 2932,
      "jumps": 2933,
      "skip": 2934,
      "flute": 2935,
      "badly": 2936,
      "poppy": 2937,
      "ckets": 2938,
      "complete": 2939,
      "names": 2940,
      "older": 2941,
      "polish": 2942,
      "rema": 2943,
      "bracelet": 2944,
      "piano": 2945,
      "value": 2946,
      "celebrate": 2947,
      "beauty": 2948,
      "club": 2949,
      "pear": 2950,
      "trash": 2951,
      "sandy": 2952,
      "library": 2953,
      "gloom": 2954,
      "gor": 2955,
      "anx": 2956,
      "crawl": 2957,
      "cooking": 2958,
      "sofa": 2959,
      "shoot": 2960,
      "jug": 2961,
      "octopus": 2962,
      "ith": 2963,
      "cakes": 2964,
      "quack": 2965,
      "uncomfortable": 2966,
      "track": 2967,
      "anxious": 2968,
      "beg": 2969,
      "parade": 2970,
      "triang": 2971,
      "tled": 2972,
      "suppl": 2973,
      "scoo": 2974,
      "buddy": 2975,
      "sity": 2976,
      "trick": 2977,
      "pho": 2978,
      "neighb": 2979,
      "sophie": 2980,
      "mole": 2981,
      "cereal": 2982,
      "refused": 2983,
      "cards": 2984,
      "oo": 2985,
      "nail": 2986,
      "reci": 2987,
      "sandwiches": 2988,
      "tooth": 2989,
      "letters": 2990,
      "twirled": 2991,
      "mush": 2992,
      "neat": 2993,
      "hook": 2994,
      "comb": 2995,
      "gifted": 2996,
      "zi": 2997,
      "mushroom": 2998,
      "base": 2999,
      "chu": 3000,
      "intelligent": 3001,
      "cupboard": 3002,
      "jet": 3003,
      "question": 3004,
      "snuggled": 3005,
      "charming": 3006,
      "math": 3007,
      "stamp": 3008,
      "repe": 3009,
      "bandage": 3010,
      "computer": 3011,
      "rules": 3012,
      "henry": 3013,
      "ignorant": 3014,
      "chasing": 3015,
      "coll": 3016,
      "gloomy": 3017,
      "pigeon": 3018,
      "gir": 3019,
      "anda": 3020,
      "deaf": 3021,
      "drawer": 3022,
      "attra": 3023,
      "sunflower": 3024,
      "anywhere": 3025,
      "disgu": 3026,
      "photo": 3027,
      "camp": 3028,
      "stretched": 3029,
      "pony": 3030,
      "hipp": 3031,
      "pasta": 3032,
      "flour": 3033,
      "jerry": 3034,
      "chance": 3035,
      "chubby": 3036,
      "vroom": 3037,
      "ceed": 3038,
      "creatures": 3039,
      "cture": 3040,
      "competitive": 3041,
      "carto": 3042,
      "curtain": 3043,
      "carpet": 3044,
      "icycle": 3045,
      "giraf": 3046,
      "rice": 3047,
      "seal": 3048,
      "lively": 3049,
      "zebra": 3050,
      "bicycle": 3051,
      "tion": 3052,
      "alert": 3053,
      "cocoa": 3054,
      "asses": 3055,
      "station": 3056,
      "monkeys": 3057,
      "annie": 3058,
      "stickers": 3059,
      "scooter": 3060,
      "return": 3061,
      "spr": 3062,
      "leash": 3063,
      "compassionate": 3064,
      "lizard": 3065,
      "igator": 3066,
      "pressed": 3067,
      "wishes": 3068,
      "collar": 3069,
      "alligator": 3070,
      "listening": 3071,
      "ffin": 3072,
      "starts": 3073,
      "dug": 3074,
      "ince": 3075,
      "melon": 3076,
      "gie": 3077,
      "attract": 3078,
      "soldier": 3079,
      "ador": 3080,
      "hood": 3081,
      "muffin": 3082,
      "miser": 3083,
      "bounced": 3084,
      "needle": 3085,
      "everyday": 3086,
      "package": 3087,
      "miserable": 3088,
      "tray": 3089,
      "ina": 3090,
      "stretch": 3091,
      "oked": 3092,
      "fearful": 3093,
      "lim": 3094,
      "raven": 3095,
      "helpless": 3096,
      "trap": 3097,
      "cli": 3098,
      "arian": 3099,
      "jeep": 3100,
      "thief": 3101,
      "itself": 3102,
      "poem": 3103,
      "web": 3104,
      "squash": 3105,
      "impat": 3106,
      "spir": 3107,
      "otter": 3108,
      "waf": 3109,
      "separ": 3110,
      "cycle": 3111,
      "shaking": 3112,
      "twist": 3113,
      "succeed": 3114,
      "shouts": 3115,
      "knock": 3116,
      "knot": 3117,
      "hive": 3118,
      "helmet": 3119,
      "leop": 3120,
      "distur": 3121,
      "somewhere": 3122,
      "pun": 3123,
      "ener": 3124,
      "pants": 3125,
      "brighter": 3126,
      "summer": 3127,
      "screw": 3128,
      "impatient": 3129,
      "lk": 3130,
      "further": 3131,
      "waffle": 3132,
      "cob": 3133,
      "respectful": 3134,
      "charlie": 3135,
      "envious": 3136,
      "perform": 3137,
      "attractive": 3138,
      "heli": 3139,
      "danny": 3140,
      "trum": 3141,
      "scoop": 3142,
      "disgusting": 3143,
      "aur": 3144,
      "afternoon": 3145,
      "practiced": 3146,
      "papa": 3147,
      "candle": 3148,
      "jan": 3149,
      "glasses": 3150,
      "ost": 3151,
      "fireman": 3152,
      "restaur": 3153,
      "filthy": 3154,
      "mug": 3155,
      "mission": 3156,
      "meas": 3157,
      "cows": 3158,
      "adorable": 3159,
      "tweetie": 3160,
      "ostrich": 3161,
      "dess": 3162,
      "paws": 3163,
      "spike": 3164,
      "split": 3165,
      "ected": 3166,
      "sandbox": 3167,
      "giggle": 3168,
      "quar": 3169,
      "kang": 3170,
      "vol": 3171,
      "anyway": 3172,
      "thread": 3173,
      "copter": 3174,
      "helicopter": 3175,
      "decorate": 3176,
      "human": 3177,
      "nuts": 3178,
      "dust": 3179,
      "kangar": 3180,
      "backpack": 3181,
      "brownie": 3182,
      "purse": 3183,
      "belt": 3184,
      "restless": 3185,
      "troubled": 3186,
      "impro": 3187,
      "tube": 3188,
      "restaurant": 3189,
      "kers": 3190,
      "stirred": 3191,
      "attic": 3192,
      "nowhere": 3193,
      "pit": 3194,
      "jellyfish": 3195,
      "barking": 3196,
      "aked": 3197,
      "theart": 3198,
      "enthusiastic": 3199,
      "complain": 3200,
      "unk": 3201,
      "spell": 3202,
      "iest": 3203,
      "lightning": 3204,
      "hippo": 3205,
      "sweetheart": 3206,
      "cooked": 3207,
      "castles": 3208,
      "cheer": 3209,
      "repair": 3210,
      "firework": 3211,
      "grabs": 3212,
      "bikes": 3213,
      "distant": 3214,
      "riding": 3215,
      "magnet": 3216,
      "bubble": 3217,
      "salt": 3218,
      "finds": 3219,
      "gorilla": 3220,
      "exper": 3221,
      "mill": 3222,
      "pipe": 3223,
      "dona": 3224,
      "second": 3225,
      "harsh": 3226,
      "cco": 3227,
      "aero": 3228,
      "admi": 3229,
      "jess": 3230,
      "happier": 3231,
      "shoe": 3232,
      "barrel": 3233,
      "tuna": 3234,
      "volcan": 3235,
      "bathtub": 3236,
      "modest": 3237,
      "stared": 3238,
      "quite": 3239,
      "cricket": 3240,
      "organize": 3241,
      "radio": 3242,
      "trumpet": 3243,
      "por": 3244,
      "sock": 3245,
      "sort": 3246,
      "leopard": 3247,
      "comet": 3248,
      "behave": 3249,
      "aoethat": 3250,
      "tick": 3251,
      "loop": 3252,
      "vine": 3253,
      "viol": 3254,
      "didna": 3255,
      "pulls": 3256,
      "oy": 3257,
      "volcano": 3258,
      "millie": 3259,
      "laun": 3260,
      "gn": 3261,
      "frowned": 3262,
      "admire": 3263,
      "brocco": 3264,
      "broccoli": 3265,
      "hall": 3266,
      "sport": 3267,
      "since": 3268,
      "shade": 3269,
      "ache": 3270,
      "mans": 3271,
      "wander": 3272,
      "speak": 3273,
      "dessert": 3274,
      "sheet": 3275,
      "meat": 3276,
      "tripped": 3277,
      "whiskers": 3278,
      "haircut": 3279,
      "chalk": 3280,
      "lilly": 3281,
      "shield": 3282,
      "mask": 3283,
      "danger": 3284,
      "pushing": 3285,
      "paid": 3286,
      "grapes": 3287,
      "smith": 3288,
      "rescue": 3289,
      "gain": 3290,
      "message": 3291,
      "frogs": 3292,
      "trains": 3293,
      "tire": 3294,
      "silver": 3295,
      "violin": 3296,
      "either": 3297,
      "holes": 3298,
      "bang": 3299,
      "seeing": 3300,
      "pole": 3301,
      "country": 3302,
      "twink": 3303,
      "pilot": 3304,
      "sweater": 3305,
      "wever": 3306,
      "however": 3307,
      "choice": 3308,
      "reco": 3309,
      "dishes": 3310,
      "chain": 3311,
      "size": 3312,
      "peek": 3313,
      "lands": 3314,
      "papers": 3315,
      "dive": 3316,
      "kne": 3317,
      "sticker": 3318,
      "pebble": 3319,
      "mommys": 3320,
      "mild": 3321,
      "switch": 3322,
      "harry": 3323,
      "recogn": 3324,
      "palace": 3325,
      "shakes": 3326,
      "nit": 3327,
      "swinging": 3328,
      "roared": 3329,
      "scold": 3330,
      "wheat": 3331,
      "vator": 3332,
      "rolling": 3333,
      "wool": 3334,
      "elevator": 3335,
      "fee": 3336,
      "triangle": 3337,
      "send": 3338,
      "uli": 3339,
      "pushes": 3340,
      "nal": 3341,
      "starting": 3342,
      "jokes": 3343,
      "panda": 3344,
      "napkin": 3345,
      "boots": 3346,
      "prun": 3347,
      "forgave": 3348,
      "costu": 3349,
      "microphone": 3350,
      "costume": 3351,
      "rod": 3352,
      "sir": 3353,
      "xi": 3354,
      "journal": 3355,
      "neighbors": 3356,
      "cush": 3357,
      "spirit": 3358,
      "avoc": 3359,
      "checked": 3360,
      "ded": 3361,
      "cel": 3362,
      "dar": 3363,
      "kangaroo": 3364,
      "softly": 3365,
      "medal": 3366,
      "shopkeeper": 3367,
      "cact": 3368,
      "fac": 3369,
      "evening": 3370,
      "falling": 3371,
      "appreci": 3372,
      "troph": 3373,
      "alive": 3374,
      "reinde": 3375,
      "lear": 3376,
      "colours": 3377,
      "imagine": 3378,
      "oat": 3379,
      "kate": 3380,
      "learnt": 3381,
      "steak": 3382,
      "raft": 3383,
      "basketball": 3384,
      "wallet": 3385,
      "judge": 3386,
      "clapping": 3387,
      "shovel": 3388,
      "climbing": 3389,
      "zoomed": 3390,
      "james": 3391,
      "planet": 3392,
      "energy": 3393,
      "eraser": 3394,
      "marry": 3395,
      "visited": 3396,
      "avail": 3397,
      "sprink": 3398,
      "barks": 3399,
      "hedge": 3400,
      "object": 3401,
      "bananas": 3402,
      "marched": 3403,
      "cof": 3404,
      "gro": 3405,
      "sim": 3406,
      "coffee": 3407,
      "laundry": 3408,
      "johns": 3409,
      "rubber": 3410,
      "maria": 3411,
      "strawberry": 3412,
      "resist": 3413,
      "tap": 3414,
      "poke": 3415,
      "taxi": 3416,
      "seum": 3417,
      "museum": 3418,
      "unhappy": 3419,
      "ambul": 3420,
      "ambulance": 3421,
      "shel": 3422,
      "aoeyou": 3423,
      "available": 3424,
      "ath": 3425,
      "painter": 3426,
      "wire": 3427,
      "tomato": 3428,
      "raining": 3429,
      "belongs": 3430,
      "smells": 3431,
      "gur": 3432,
      "trem": 3433,
      "iron": 3434,
      "beam": 3435,
      "putting": 3436,
      "awe": 3437,
      "inking": 3438,
      "cauli": 3439,
      "cardboard": 3440,
      "ucked": 3441,
      "trophy": 3442,
      "ino": 3443,
      "dear": 3444,
      "mim": 3445,
      "bol": 3446,
      "celery": 3447,
      "task": 3448,
      "iling": 3449,
      "feelings": 3450,
      "bulb": 3451,
      "counter": 3452,
      "motorcycle": 3453,
      "tricks": 3454,
      "sle": 3455,
      "winter": 3456,
      "reindeer": 3457,
      "az": 3458,
      "petal": 3459,
      "yach": 3460,
      "resp": 3461,
      "soil": 3462,
      "appl": 3463,
      "cus": 3464,
      "breaks": 3465,
      "hoping": 3466,
      "support": 3467,
      "drawings": 3468,
      "cups": 3469,
      "quit": 3470,
      "rabbits": 3471,
      "maggie": 3472,
      "yogur": 3473,
      "aeroplane": 3474,
      "lucys": 3475,
      "shrimp": 3476,
      "ske": 3477,
      "heads": 3478,
      "squirrels": 3479,
      "treasures": 3480,
      "vend": 3481,
      "golf": 3482,
      "crash": 3483,
      "bey": 3484,
      "unlock": 3485,
      "shelter": 3486,
      "aled": 3487,
      "flame": 3488,
      "leaned": 3489,
      "magaz": 3490,
      "notebook": 3491,
      "cactus": 3492,
      "horses": 3493,
      "enter": 3494,
      "planes": 3495,
      "yogurt": 3496,
      "skill": 3497,
      "lawy": 3498,
      "quarrel": 3499,
      "inclu": 3500,
      "yacht": 3501,
      "mule": 3502,
      "ax": 3503,
      "mee": 3504,
      "scope": 3505,
      "drops": 3506,
      "cauliflower": 3507,
      "ense": 3508,
      "fields": 3509,
      "folder": 3510,
      "football": 3511,
      "frame": 3512,
      "airport": 3513,
      "twis": 3514,
      "comfort": 3515,
      "tony": 3516,
      "coal": 3517,
      "film": 3518,
      "rect": 3519,
      "comm": 3520,
      "minute": 3521,
      "nament": 3522,
      "rhino": 3523,
      "onion": 3524,
      "apologized": 3525,
      "sher": 3526,
      "theres": 3527,
      "page": 3528,
      "hotel": 3529,
      "vendor": 3530,
      "factory": 3531,
      "eagerly": 3532,
      "shoo": 3533,
      "diary": 3534,
      "ah": 3535,
      "porch": 3536,
      "bree": 3537,
      "closely": 3538,
      "imagination": 3539,
      "betwe": 3540,
      "between": 3541,
      "herb": 3542,
      "pirates": 3543,
      "swung": 3544,
      "sym": 3545,
      "knob": 3546,
      "chan": 3547,
      "cooler": 3548,
      "kat": 3549,
      "attent": 3550,
      "ding": 3551,
      "points": 3552,
      "burn": 3553,
      "shouting": 3554,
      "cheek": 3555,
      "weigh": 3556,
      "skele": 3557,
      "point": 3558,
      "yoga": 3559,
      "crow": 3560,
      "neighbour": 3561,
      "ornament": 3562,
      "skeleton": 3563,
      "throws": 3564,
      "mimi": 3565,
      "aoen": 3566,
      "baking": 3567,
      "stuffed": 3568,
      "furnit": 3569,
      "furniture": 3570,
      "va": 3571,
      "god": 3572,
      "jazz": 3573,
      "fortun": 3574,
      "render": 3575,
      "hadnt": 3576,
      "tear": 3577,
      "squi": 3578,
      "temple": 3579,
      "tip": 3580,
      "laser": 3581,
      "surrender": 3582,
      "izes": 3583,
      "skull": 3584,
      "trail": 3585,
      "poss": 3586,
      "mosqui": 3587,
      "peach": 3588,
      "forgotten": 3589,
      "soc": 3590,
      "created": 3591,
      "mixer": 3592,
      "attention": 3593,
      "perfectly": 3594,
      "pine": 3595,
      "cell": 3596,
      "headed": 3597,
      "zipper": 3598,
      "iglo": 3599,
      "soccer": 3600,
      "aper": 3601,
      "chor": 3602,
      "slept": 3603,
      "flea": 3604,
      "giraffe": 3605,
      "ckey": 3606,
      "ws": 3607,
      "hockey": 3608,
      "shouldnt": 3609,
      "hut": 3610,
      "chur": 3611,
      "ides": 3612,
      "symbol": 3613,
      "player": 3614,
      "breathe": 3615,
      "mechan": 3616,
      "oil": 3617,
      "mechanic": 3618,
      "died": 3619,
      "swamp": 3620,
      "pted": 3621,
      "sunset": 3622,
      "rele": 3623,
      "disappear": 3624,
      "wife": 3625,
      "petals": 3626,
      "meeting": 3627,
      "sla": 3628,
      "reef": 3629,
      "greed": 3630,
      "luckily": 3631,
      "seas": 3632,
      "fireplace": 3633,
      "grin": 3634,
      "argue": 3635,
      "blowing": 3636,
      "church": 3637,
      "igloo": 3638,
      "ris": 3639,
      "video": 3640,
      "cherries": 3641,
      "ire": 3642,
      "aff": 3643,
      "rosie": 3644,
      "waving": 3645,
      "newsp": 3646,
      "wipe": 3647,
      "theater": 3648,
      "potato": 3649,
      "weather": 3650,
      "chess": 3651,
      "breeze": 3652,
      "cable": 3653,
      "freez": 3654,
      "writ": 3655,
      "oyster": 3656,
      "calls": 3657,
      "powder": 3658,
      "anchor": 3659,
      "maze": 3660,
      "chickens": 3661,
      "golden": 3662,
      "unpack": 3663,
      "buck": 3664,
      "glove": 3665,
      "lawyer": 3666,
      "immed": 3667,
      "est": 3668,
      "trave": 3669,
      "bouncing": 3670,
      "rhinocer": 3671,
      "celebrated": 3672,
      "popped": 3673,
      "apr": 3674,
      "fisher": 3675,
      "angu": 3676,
      "fishing": 3677,
      "axe": 3678,
      "langu": 3679,
      "washer": 3680,
      "sunglasses": 3681,
      "lime": 3682,
      "comed": 3683,
      "glowing": 3684,
      "welcomed": 3685,
      "cushion": 3686,
      "sneak": 3687,
      "slipper": 3688,
      "alright": 3689,
      "grocer": 3690,
      "fortunately": 3691,
      "bury": 3692,
      "staff": 3693,
      "short": 3694,
      "shower": 3695,
      "sniffed": 3696,
      "streng": 3697,
      "cree": 3698,
      "clara": 3699,
      "slippery": 3700,
      "oak": 3701,
      "kingdom": 3702,
      "lotion": 3703,
      "sisted": 3704,
      "plastic": 3705,
      "hanging": 3706,
      "snowy": 3707,
      "sub": 3708,
      "greedy": 3709,
      "oking": 3710,
      "doggy": 3711,
      "surround": 3712,
      "rhinoceros": 3713,
      "strength": 3714,
      "flapped": 3715,
      "superhero": 3716,
      "battery": 3717,
      "wags": 3718,
      "toile": 3719,
      "fog": 3720,
      "uce": 3721,
      "cabinet": 3722,
      "vision": 3723,
      "intro": 3724,
      "ouch": 3725,
      "mystery": 3726,
      "introdu": 3727,
      "tina": 3728,
      "wigg": 3729,
      "invest": 3730,
      "beef": 3731,
      "pinch": 3732,
      "dishwasher": 3733,
      "writing": 3734,
      "uniform": 3735,
      "tol": 3736,
      "fauce": 3737,
      "puddles": 3738,
      "pis": 3739,
      "ceiling": 3740,
      "yield": 3741,
      "shoulder": 3742,
      "investig": 3743,
      "toilet": 3744,
      "news": 3745,
      "pistol": 3746,
      "zzy": 3747,
      "encoura": 3748,
      "musician": 3749,
      "reve": 3750,
      "sticky": 3751,
      "microscope": 3752,
      "served": 3753,
      "hopes": 3754,
      "baseball": 3755,
      "memories": 3756,
      "mistakes": 3757,
      "eaten": 3758,
      "snap": 3759,
      "fought": 3760,
      "lend": 3761,
      "novel": 3762,
      "sailing": 3763,
      "faucet": 3764,
      "burned": 3765,
      "skirt": 3766,
      "kayak": 3767,
      "coats": 3768,
      "avocado": 3769,
      "mop": 3770,
      "follows": 3771,
      "tutor": 3772,
      "television": 3773,
      "cuss": 3774,
      "magazine": 3775,
      "possible": 3776,
      "yum": 3777,
      "gret": 3778,
      "shrugged": 3779,
      "mattre": 3780,
      "during": 3781,
      "immedi": 3782,
      "jewelry": 3783,
      "classroom": 3784,
      "iv": 3785,
      "blankets": 3786,
      "moves": 3787,
      "ignored": 3788,
      "isnt": 3789,
      "throwing": 3790,
      "immediately": 3791,
      "sprayed": 3792,
      "radish": 3793,
      "veter": 3794,
      "veterin": 3795,
      "happens": 3796,
      "veterinarian": 3797,
      "aoeita": 3798,
      "quietly": 3799,
      "discuss": 3800,
      "zoe": 3801,
      "investigate": 3802,
      "experience": 3803,
      "alarm": 3804,
      "cost": 3805,
      "worms": 3806,
      "applau": 3807,
      "worth": 3808,
      "dancer": 3809,
      "display": 3810,
      "cared": 3811,
      "collected": 3812,
      "matches": 3813,
      "aoed": 3814,
      "bother": 3815,
      "chim": 3816,
      "prevent": 3817,
      "tug": 3818,
      "suff": 3819,
      "crib": 3820,
      "keeping": 3821,
      "ison": 3822,
      "wis": 3823,
      "scolded": 3824,
      "hon": 3825,
      "apart": 3826,
      "mattress": 3827,
      "valley": 3828,
      "accepted": 3829,
      "argu": 3830,
      "dressed": 3831,
      "gym": 3832,
      "olive": 3833,
      "candles": 3834,
      "zor": 3835,
      "regret": 3836,
      "separate": 3837,
      "mint": 3838,
      "dent": 3839,
      "blin": 3840,
      "sigh": 3841,
      "presents": 3842,
      "poo": 3843,
      "creek": 3844,
      "erc": 3845,
      "blouse": 3846,
      "captain": 3847,
      "cobweb": 3848,
      "veil": 3849,
      "fisherman": 3850,
      "straight": 3851,
      "bers": 3852,
      "offer": 3853,
      "exerc": 3854,
      "stable": 3855,
      "chimney": 3856,
      "tucked": 3857,
      "blood": 3858,
      "rooms": 3859,
      "trusted": 3860,
      "sizes": 3861,
      "kisses": 3862,
      "improve": 3863,
      "razor": 3864,
      "lab": 3865,
      "steam": 3866,
      "entered": 3867,
      "label": 3868,
      "bookcase": 3869,
      "rush": 3870,
      "armchair": 3871,
      "licks": 3872,
      "mosquito": 3873,
      "caring": 3874,
      "delay": 3875,
      "pedal": 3876,
      "wardrobe": 3877,
      "ys": 3878,
      "model": 3879,
      "newspaper": 3880,
      "frown": 3881,
      "omed": 3882,
      "claws": 3883,
      "accept": 3884,
      "slice": 3885,
      "shrink": 3886,
      "rake": 3887,
      "milly": 3888,
      "lawn": 3889,
      "mustache": 3890,
      "doctors": 3891,
      "freezer": 3892,
      "bathe": 3893,
      "grill": 3894,
      "lia": 3895,
      "boot": 3896,
      "letting": 3897,
      "splashing": 3898,
      "fant": 3899,
      "quiz": 3900,
      "appro": 3901,
      "sham": 3902,
      "waste": 3903,
      "ms": 3904,
      "hic": 3905,
      "squeeze": 3906,
      "freddy": 3907,
      "vehic": 3908,
      "thr": 3909,
      "mand": 3910,
      "sters": 3911,
      "opera": 3912,
      "shampoo": 3913,
      "ement": 3914,
      "ups": 3915,
      "amazement": 3916,
      "float": 3917,
      "perfu": 3918,
      "puzzles": 3919,
      "perfume": 3920,
      "ins": 3921,
      "chairs": 3922,
      "blinked": 3923,
      "pastry": 3924,
      "mer": 3925,
      "root": 3926,
      "makeup": 3927,
      "demand": 3928,
      "len": 3929,
      "lumber": 3930,
      "birdcage": 3931,
      "kneel": 3932,
      "language": 3933,
      "crossed": 3934,
      "spear": 3935,
      "warmth": 3936,
      "easily": 3937,
      "incre": 3938,
      "holid": 3939,
      "crawling": 3940,
      "holiday": 3941,
      "hearts": 3942,
      "oper": 3943,
      "reverse": 3944,
      "eral": 3945,
      "squeezed": 3946,
      "lic": 3947,
      "dic": 3948,
      "telephone": 3949,
      "ticket": 3950,
      "sparkle": 3951,
      "missile": 3952,
      "mist": 3953,
      "recomm": 3954,
      "cham": 3955,
      "ribbon": 3956,
      "ringing": 3957,
      "weep": 3958,
      "gear": 3959,
      "yucky": 3960,
      "rail": 3961,
      "llen": 3962,
      "diction": 3963,
      "attach": 3964,
      "file": 3965,
      "dictionary": 3966,
      "blueberries": 3967,
      "relaxed": 3968,
      "wandered": 3969,
      "helper": 3970,
      "melt": 3971,
      "padd": 3972,
      "oas": 3973,
      "ruby": 3974,
      "sparkles": 3975,
      "offic": 3976,
      "vid": 3977,
      "oasis": 3978,
      "prepar": 3979,
      "ideas": 3980,
      "hurting": 3981,
      "subway": 3982,
      "sneeze": 3983,
      "junk": 3984,
      "mineral": 3985,
      "sect": 3986,
      "poked": 3987,
      "die": 3988,
      "gers": 3989,
      "below": 3990,
      "surprises": 3991,
      "invit": 3992,
      "following": 3993,
      "moments": 3994,
      "tast": 3995,
      "unfortunately": 3996,
      "fuel": 3997,
      "growled": 3998,
      "trade": 3999,
      "nore": 4000,
      "fest": 4001,
      "reaches": 4002,
      "tornado": 4003,
      "married": 4004,
      "pastel": 4005,
      "surf": 4006,
      "sandcastle": 4007,
      "jail": 4008,
      "request": 4009,
      "bet": 4010,
      "elephants": 4011,
      "raise": 4012,
      "asht": 4013,
      "laught": 4014,
      "ashtray": 4015,
      "bravely": 4016,
      "plates": 4017,
      "invite": 4018,
      "strawberries": 4019,
      "fallen": 4020,
      "begged": 4021,
      "none": 4022,
      "admir": 4023,
      "lier": 4024,
      "recei": 4025,
      "buried": 4026,
      "expected": 4027,
      "safety": 4028,
      "wine": 4029,
      "decis": 4030,
      "ival": 4031,
      "myself": 4032,
      "cliff": 4033,
      "laughter": 4034,
      "omeday": 4035,
      "someday": 4036,
      "whip": 4037,
      "icing": 4038,
      "ining": 4039,
      "weap": 4040,
      "beamed": 4041,
      "bookshelf": 4042,
      "festival": 4043,
      "skills": 4044,
      "peoples": 4045,
      "bumped": 4046,
      "understanding": 4047,
      "direct": 4048,
      "aoeno": 4049,
      "bleed": 4050,
      "calend": 4051,
      "supply": 4052,
      "rachel": 4053,
      "apron": 4054,
      "harbor": 4055,
      "abig": 4056,
      "refri": 4057,
      "gerator": 4058,
      "autom": 4059,
      "refrigerator": 4060,
      "saving": 4061,
      "snapped": 4062,
      "socks": 4063,
      "automob": 4064,
      "calendar": 4065,
      "war": 4066,
      "thumb": 4067,
      "drain": 4068,
      "disturb": 4069,
      "ignore": 4070,
      "pages": 4071,
      "tour": 4072,
      "remove": 4073,
      "abigail": 4074,
      "ollie": 4075,
      "cuddled": 4076,
      "hardly": 4077,
      "nce": 4078,
      "buckle": 4079,
      "spending": 4080,
      "dried": 4081,
      "lemonade": 4082,
      "structure": 4083,
      "balan": 4084,
      "beans": 4085,
      "jewels": 4086,
      "sparkling": 4087,
      "rhy": 4088,
      "sarahs": 4089,
      "permission": 4090,
      "dare": 4091,
      "scattered": 4092,
      "dresses": 4093,
      "sues": 4094,
      "bathrobe": 4095,
      "punish": 4096,
      "hits": 4097,
      "afterwards": 4098,
      "destination": 4099,
      "taller": 4100,
      "vanished": 4101,
      "sausage": 4102,
      "repeat": 4103,
      "ium": 4104,
      "washing": 4105,
      "crun": 4106,
      "insisted": 4107,
      "blackboard": 4108,
      "teaching": 4109,
      "tling": 4110,
      "pride": 4111,
      "katie": 4112,
      "spade": 4113,
      "prepare": 4114,
      "remy": 4115,
      "obey": 4116,
      "glit": 4117,
      "wisdom": 4118,
      "earlier": 4119,
      "difference": 4120,
      "praised": 4121,
      "cherry": 4122,
      "yawned": 4123,
      "settled": 4124,
      "scooped": 4125,
      "steve": 4126,
      "hanger": 4127,
      "solved": 4128,
      "bets": 4129,
      "license": 4130,
      "nies": 4131,
      "rr": 4132,
      "chamber": 4133,
      "received": 4134,
      "destroyed": 4135,
      "compl": 4136,
      "conf": 4137,
      "cation": 4138,
      "buzzing": 4139,
      "anne": 4140,
      "chirping": 4141,
      "sits": 4142,
      "hate": 4143,
      "scratch": 4144,
      "pulling": 4145,
      "patiently": 4146,
      "appreciate": 4147,
      "encouraged": 4148,
      "decorations": 4149,
      "homes": 4150,
      "poison": 4151,
      "achie": 4152,
      "chip": 4153,
      "deeper": 4154,
      "nation": 4155,
      "tore": 4156,
      "bling": 4157,
      "tease": 4158,
      "flav": 4159,
      "hills": 4160,
      "sisters": 4161,
      "brain": 4162,
      "shot": 4163,
      "insect": 4164,
      "antly": 4165,
      "hers": 4166,
      "heat": 4167,
      "orang": 4168,
      "climbs": 4169,
      "score": 4170,
      "oranges": 4171,
      "fastest": 4172,
      "universe": 4173,
      "tongue": 4174,
      "warning": 4175,
      "believed": 4176,
      "replace": 4177,
      "gifts": 4178,
      "versity": 4179,
      "everybody": 4180,
      "chores": 4181,
      "panic": 4182,
      "respons": 4183,
      "upstairs": 4184,
      "rhyth": 4185,
      "shooting": 4186,
      "ached": 4187,
      "mister": 4188,
      "mention": 4189,
      "aking": 4190,
      "examine": 4191,
      "passport": 4192,
      "hesit": 4193,
      "floated": 4194,
      "plays": 4195,
      "turning": 4196,
      "anytime": 4197,
      "digg": 4198,
      "worse": 4199,
      "grey": 4200,
      "weeks": 4201,
      "betsy": 4202,
      "grape": 4203,
      "twisted": 4204,
      "university": 4205,
      "beat": 4206,
      "automobile": 4207,
      "struggling": 4208,
      "vacation": 4209,
      "perfor": 4210,
      "digging": 4211,
      "wherever": 4212,
      "equ": 4213,
      "vy": 4214,
      "teas": 4215,
      "zing": 4216,
      "setting": 4217,
      "sneezed": 4218,
      "restore": 4219,
      "thrilled": 4220,
      "mall": 4221,
      "wiz": 4222,
      "stad": 4223,
      "massage": 4224,
      "stadium": 4225,
      "fied": 4226,
      "floating": 4227,
      "ker": 4228,
      "meowed": 4229,
      "frank": 4230,
      "bites": 4231,
      "talent": 4232,
      "proper": 4233,
      "grinned": 4234,
      "sip": 4235,
      "ranch": 4236,
      "parts": 4237,
      "paints": 4238,
      "provide": 4239,
      "mmm": 4240,
      "approached": 4241,
      "vehicle": 4242,
      "crunch": 4243,
      "cartoon": 4244,
      "zero": 4245,
      "muscle": 4246,
      "measured": 4247,
      "brings": 4248,
      "scatter": 4249,
      "memory": 4250,
      "six": 4251,
      "zipped": 4252,
      "robb": 4253,
      "urge": 4254,
      "remained": 4255,
      "neighborhood": 4256,
      "stomach": 4257,
      "luna": 4258,
      "sprinkles": 4259,
      "bricks": 4260,
      "marbles": 4261,
      "eter": 4262,
      "infant": 4263,
      "mailman": 4264,
      "actually": 4265,
      "mometer": 4266,
      "david": 4267,
      "thermometer": 4268,
      "lugg": 4269,
      "cartoons": 4270,
      "permit": 4271,
      "collection": 4272,
      "weapon": 4273,
      "fy": 4274,
      "fut": 4275,
      "leak": 4276,
      "luggage": 4277,
      "rhythm": 4278,
      "teaspo": 4279,
      "future": 4280,
      "fixing": 4281,
      "osed": 4282,
      "supposed": 4283,
      "glowed": 4284,
      "remain": 4285,
      "billboard": 4286,
      "cin": 4287,
      "nie": 4288,
      "signs": 4289,
      "pigs": 4290,
      "seats": 4291,
      "rang": 4292,
      "folded": 4293,
      "tomatoes": 4294,
      "toe": 4295,
      "hurri": 4296,
      "squeak": 4297,
      "ski": 4298,
      "flood": 4299,
      "sliding": 4300,
      "palm": 4301,
      "sore": 4302,
      "disco": 4303,
      "airplane": 4304,
      "surrounded": 4305,
      "pets": 4306,
      "copper": 4307,
      "choo": 4308,
      "lul": 4309,
      "watches": 4310,
      "potatoes": 4311,
      "receive": 4312,
      "wizard": 4313,
      "growl": 4314,
      "beth": 4315,
      "operation": 4316,
      "emer": 4317,
      "discovery": 4318,
      "bbled": 4319,
      "unite": 4320,
      "curled": 4321,
      "iers": 4322,
      "umble": 4323,
      "melted": 4324,
      "pillows": 4325,
      "aded": 4326,
      "paused": 4327,
      "aoethata": 4328,
      "pupp": 4329,
      "whistling": 4330,
      "bobs": 4331,
      "exercise": 4332,
      "admiring": 4333,
      "chewed": 4334,
      "invitation": 4335,
      "problems": 4336,
      "lick": 4337,
      "pea": 4338,
      "sunlight": 4339,
      "freeze": 4340,
      "strangers": 4341,
      "contain": 4342,
      "price": 4343,
      "tide": 4344,
      "tracks": 4345,
      "laid": 4346,
      "aoeia": 4347,
      "twigs": 4348,
      "sunrise": 4349,
      "sings": 4350,
      "racing": 4351,
      "mollys": 4352,
      "hurricane": 4353,
      "ki": 4354,
      "janes": 4355,
      "ef": 4356,
      "vic": 4357,
      "weight": 4358,
      "peanuts": 4359,
      "jogging": 4360,
      "cious": 4361,
      "decision": 4362,
      "glitter": 4363,
      "patterns": 4364,
      "teaspoon": 4365,
      "soldiers": 4366,
      "gust": 4367,
      "marching": 4368,
      "velvet": 4369,
      "prune": 4370,
      "ake": 4371,
      "zag": 4372,
      "spoons": 4373,
      "crashed": 4374,
      "kindly": 4375,
      "dragons": 4376,
      "yawn": 4377,
      "collecting": 4378,
      "grocery": 4379,
      "unic": 4380,
      "watered": 4381,
      "officer": 4382,
      "lies": 4383,
      "zig": 4384,
      "esca": 4385,
      "fascin": 4386,
      "observe": 4387,
      "spaceship": 4388,
      "ordered": 4389,
      "sed": 4390,
      "gloves": 4391,
      "fet": 4392,
      "manage": 4393,
      "satis": 4394,
      "sus": 4395,
      "dinosaurs": 4396,
      "skipping": 4397,
      "xy": 4398,
      "chlo": 4399,
      "goodnight": 4400,
      "scur": 4401,
      "ali": 4402,
      "history": 4403,
      "monsters": 4404,
      "spill": 4405,
      "navy": 4406,
      "chirped": 4407,
      "aoethank": 4408,
      "burning": 4409,
      "bones": 4410,
      "drinks": 4411,
      "wre": 4412,
      "quake": 4413,
      "scratched": 4414,
      "agreement": 4415,
      "petted": 4416,
      "continue": 4417,
      "ities": 4418,
      "earthquake": 4419,
      "safar": 4420,
      "sidewalk": 4421,
      "escaped": 4422,
      "buildings": 4423,
      "beside": 4424,
      "nutty": 4425,
      "lip": 4426,
      "works": 4427,
      "crunchy": 4428,
      "raised": 4429,
      "challen": 4430,
      "accidents": 4431,
      "mountains": 4432,
      "famil": 4433,
      "rested": 4434,
      "brid": 4435,
      "gotten": 4436,
      "brick": 4437,
      "ipment": 4438,
      "equipment": 4439,
      "screams": 4440,
      "flavor": 4441,
      "lest": 4442,
      "aw": 4443,
      "attached": 4444,
      "onwards": 4445,
      "beha": 4446,
      "measuring": 4447,
      "ashes": 4448,
      "comfy": 4449,
      "suzy": 4450,
      "abby": 4451,
      "julie": 4452,
      "happiest": 4453,
      "lecture": 4454,
      "menu": 4455,
      "refre": 4456,
      "whistled": 4457,
      "remembers": 4458,
      "safari": 4459,
      "refreshed": 4460,
      "lips": 4461,
      "peered": 4462,
      "fireworks": 4463,
      "precious": 4464,
      "joyed": 4465,
      "planted": 4466,
      "pies": 4467,
      "overjoyed": 4468,
      "hurried": 4469,
      "orts": 4470,
      "whatever": 4471,
      "clearing": 4472,
      "hated": 4473,
      "tommys": 4474,
      "selling": 4475,
      "zigzag": 4476,
      "waits": 4477,
      "pip": 4478,
      "beds": 4479,
      "sages": 4480,
      "disagreed": 4481,
      "network": 4482,
      "brand": 4483,
      "secrets": 4484,
      "pitch": 4485,
      "image": 4486,
      "pearl": 4487,
      "wonders": 4488,
      "bowed": 4489,
      "chloe": 4490,
      "drinking": 4491,
      "slip": 4492,
      "exact": 4493,
      "floppy": 4494,
      "stripes": 4495,
      "thom": 4496,
      "ffic": 4497,
      "wooden": 4498,
      "style": 4499,
      "comp": 4500,
      "marks": 4501,
      "woof": 4502,
      "nina": 4503,
      "aoewe": 4504,
      "company": 4505,
      "rained": 4506,
      "swo": 4507,
      "recognized": 4508,
      "olives": 4509,
      "bridges": 4510,
      "cuddle": 4511,
      "reminder": 4512,
      "voices": 4513,
      "shadows": 4514,
      "chat": 4515,
      "stealing": 4516,
      "rol": 4517,
      "prepared": 4518,
      "curio": 4519,
      "cutting": 4520,
      "printer": 4521,
      "succeeded": 4522,
      "lung": 4523,
      "crept": 4524,
      "traffic": 4525,
      "josh": 4526,
      "comforted": 4527,
      "blueberry": 4528,
      "sunday": 4529,
      "steel": 4530,
      "revealed": 4531,
      "curiosity": 4532,
      "easier": 4533,
      "simple": 4534,
      "prayed": 4535,
      "mouths": 4536,
      "eagle": 4537,
      "fash": 4538,
      "oxy": 4539,
      "catching": 4540,
      "mare": 4541,
      "peel": 4542,
      "bene": 4543,
      "stitch": 4544,
      "nightmare": 4545,
      "jamie": 4546,
      "oxygen": 4547,
      "circus": 4548,
      "villag": 4549,
      "chef": 4550,
      "settle": 4551,
      "solut": 4552,
      "bbles": 4553,
      "firefight": 4554,
      "muddy": 4555,
      "oats": 4556,
      "bleeding": 4557,
      "umes": 4558,
      "thomas": 4559,
      "apologize": 4560,
      "loaded": 4561,
      "accompl": 4562,
      "perched": 4563,
      "breaking": 4564,
      "wreck": 4565,
      "grandmother": 4566,
      "trapped": 4567,
      "victory": 4568,
      "flutter": 4569,
      "struct": 4570,
      "acorns": 4571,
      "tilly": 4572,
      "soared": 4573,
      "pupil": 4574,
      "chirpy": 4575,
      "rul": 4576,
      "joes": 4577,
      "ising": 4578,
      "caut": 4579,
      "bouncy": 4580,
      "wanting": 4581,
      "creation": 4582,
      "cub": 4583,
      "fuzzy": 4584,
      "aoecan": 4585,
      "landscape": 4586,
      "fashion": 4587,
      "lap": 4588,
      "tastes": 4589,
      "waffles": 4590,
      "responsible": 4591,
      "practicing": 4592,
      "gained": 4593,
      "exactly": 4594,
      "soak": 4595,
      "shopping": 4596,
      "owned": 4597,
      "fer": 4598,
      "disturbed": 4599,
      "keys": 4600,
      "sallys": 4601,
      "youa": 4602,
      "visiting": 4603,
      "rs": 4604,
      "neath": 4605,
      "underneath": 4606,
      "startled": 4607,
      "spiders": 4608,
      "beneath": 4609,
      "costumes": 4610,
      "prints": 4611,
      "betty": 4612,
      "villagers": 4613,
      "werent": 4614,
      "yester": 4615,
      "guessed": 4616,
      "waist": 4617,
      "answers": 4618,
      "yesterday": 4619,
      "exit": 4620,
      "izing": 4621,
      "items": 4622,
      "leather": 4623,
      "mice": 4624,
      "mira": 4625,
      "heel": 4626,
      "tremble": 4627,
      "ripped": 4628,
      "hanna": 4629,
      "bennys": 4630,
      "brushes": 4631,
      "eight": 4632,
      "downstairs": 4633,
      "brushed": 4634,
      "west": 4635,
      "area": 4636,
      "recommend": 4637,
      "sadness": 4638,
      "bank": 4639,
      "lemons": 4640,
      "twinkle": 4641,
      "unicorn": 4642,
      "owners": 4643,
      "iggy": 4644,
      "bringing": 4645,
      "att": 4646,
      "united": 4647,
      "eats": 4648,
      "daisys": 4649,
      "struggled": 4650,
      "control": 4651,
      "encourage": 4652,
      "fascinated": 4653,
      "underground": 4654,
      "argued": 4655,
      "twirling": 4656,
      "todd": 4657,
      "knel": 4658,
      "lines": 4659,
      "amys": 4660,
      "unlocked": 4661,
      "knelt": 4662,
      "recognize": 4663,
      "suffer": 4664,
      "winning": 4665,
      "nails": 4666,
      "studied": 4667,
      "ases": 4668,
      "writes": 4669,
      "activ": 4670,
      "soaring": 4671,
      "outdoors": 4672,
      "planned": 4673,
      "sniff": 4674,
      "decorated": 4675,
      "examined": 4676,
      "ric": 4677,
      "deal": 4678,
      "nicer": 4679,
      "weighed": 4680,
      "wondering": 4681,
      "reas": 4682,
      "stored": 4683,
      "situ": 4684,
      "wagging": 4685,
      "rides": 4686,
      "ana": 4687,
      "uses": 4688,
      "jogged": 4689,
      "lulu": 4690,
      "tugged": 4691,
      "instruct": 4692,
      "boom": 4693,
      "bunnies": 4694,
      "rubbing": 4695,
      "tickets": 4696,
      "shivering": 4697,
      "fetch": 4698,
      "realize": 4699,
      "slapped": 4700,
      "pinched": 4701,
      "begin": 4702,
      "supplies": 4703,
      "bare": 4704,
      "emergen": 4705,
      "challenge": 4706,
      "wid": 4707,
      "lux": 4708,
      "slim": 4709,
      "machines": 4710,
      "mixing": 4711,
      "siren": 4712,
      "sneaked": 4713,
      "satisfied": 4714,
      "ky": 4715,
      "blink": 4716,
      "stretching": 4717,
      "increase": 4718,
      "instructions": 4719,
      "winner": 4720,
      "yelling": 4721,
      "firemen": 4722,
      "ruin": 4723,
      "piles": 4724,
      "pancakes": 4725,
      "stirring": 4726,
      "cot": 4727,
      "teasing": 4728,
      "nes": 4729,
      "inch": 4730,
      "loving": 4731,
      "jessie": 4732,
      "gathering": 4733,
      "ots": 4734,
      "sides": 4735,
      "peaches": 4736,
      "shoulders": 4737,
      "draws": 4738,
      "release": 4739,
      "amb": 4740,
      "susan": 4741,
      "luxu": 4742,
      "theyre": 4743,
      "guns": 4744,
      "punished": 4745,
      "dolly": 4746,
      "pockets": 4747,
      "claire": 4748,
      "seag": 4749,
      "zooming": 4750,
      "youn": 4751,
      "neighbourhood": 4752,
      "grant": 4753,
      "printed": 4754,
      "strike": 4755,
      "properly": 4756,
      "bert": 4757,
      "seagull": 4758,
      "prunes": 4759,
      "hannah": 4760,
      "keeps": 4761,
      "claps": 4762,
      "sant": 4763,
      "strip": 4764,
      "introduce": 4765,
      "ago": 4766,
      "sights": 4767,
      "hunt": 4768,
      "travell": 4769,
      "ction": 4770,
      "tune": 4771,
      "herbs": 4772,
      "deser": 4773,
      "carl": 4774,
      "ica": 4775,
      "lilas": 4776,
      "budge": 4777,
      "buckets": 4778,
      "poking": 4779,
      "aoelook": 4780,
      "beard": 4781,
      "aoethis": 4782,
      "smar": 4783,
      "released": 4784,
      "tonight": 4785,
      "ruler": 4786,
      "honk": 4787,
      "broom": 4788,
      "east": 4789,
      "aoehello": 4790,
      "crumb": 4791,
      "lou": 4792,
      "adam": 4793,
      "youth": 4794,
      "confident": 4795,
      "giggling": 4796,
      "studying": 4797,
      "struck": 4798,
      "frosting": 4799,
      "flap": 4800,
      "thata": 4801,
      "opin": 4802,
      "decides": 4803,
      "motion": 4804,
      "bunch": 4805,
      "patience": 4806,
      "baked": 4807,
      "camping": 4808,
      "ppers": 4809,
      "protected": 4810,
      "zen": 4811,
      "burrow": 4812,
      "bend": 4813,
      "hest": 4814,
      "riage": 4815,
      "sorting": 4816,
      "parked": 4817,
      "shock": 4818,
      "purred": 4819,
      "muscles": 4820,
      "aoeit": 4821,
      "cautious": 4822,
      "sted": 4823,
      "touching": 4824,
      "rainbows": 4825,
      "ribbons": 4826,
      "inda": 4827,
      "surface": 4828,
      "silence": 4829,
      "strings": 4830,
      "repeated": 4831,
      "relu": 4832,
      "chuck": 4833,
      "reluct": 4834,
      "emergency": 4835,
      "demanded": 4836,
      "competition": 4837,
      "snail": 4838,
      "jeff": 4839,
      "tickle": 4840,
      "ourselves": 4841,
      "gg": 4842,
      "vowed": 4843,
      "acted": 4844,
      "entire": 4845,
      "babies": 4846,
      "sweeties": 4847,
      "policeman": 4848,
      "muffins": 4849,
      "dragged": 4850,
      "mentioned": 4851,
      "santa": 4852,
      "guys": 4853,
      "powers": 4854,
      "vies": 4855,
      "ecting": 4856,
      "steep": 4857,
      "frozen": 4858,
      "fab": 4859,
      "scurried": 4860,
      "dies": 4861,
      "lied": 4862,
      "dolphins": 4863,
      "luxury": 4864,
      "tex": 4865,
      "barely": 4866,
      "shelves": 4867,
      "movies": 4868,
      "discovering": 4869,
      "loose": 4870,
      "soaked": 4871,
      "drives": 4872,
      "pears": 4873,
      "tiest": 4874,
      "prettiest": 4875,
      "tues": 4876,
      "pouring": 4877,
      "gazed": 4878,
      "wednes": 4879,
      "wound": 4880,
      "season": 4881,
      "kicking": 4882,
      "reluctantly": 4883,
      "thre": 4884,
      "horns": 4885,
      "cind": 4886,
      "curly": 4887,
      "snakes": 4888,
      "chewing": 4889,
      "chases": 4890,
      "result": 4891,
      "texture": 4892,
      "suz": 4893,
      "sausages": 4894,
      "uh": 4895,
      "ham": 4896,
      "lizz": 4897,
      "foods": 4898,
      "ladybug": 4899,
      "planets": 4900,
      "cones": 4901,
      "ledge": 4902,
      "strum": 4903,
      "rocked": 4904,
      "stom": 4905,
      "chips": 4906,
      "roses": 4907,
      "ects": 4908,
      "stole": 4909,
      "gree": 4910,
      "highest": 4911,
      "slimy": 4912,
      "weed": 4913,
      "applauded": 4914,
      "urged": 4915,
      "rings": 4916,
      "ib": 4917,
      "aoewhy": 4918,
      "wink": 4919,
      "contest": 4920,
      "flat": 4921,
      "pebbles": 4922,
      "rust": 4923,
      "kayla": 4924,
      "cuts": 4925,
      "twinkling": 4926,
      "excuse": 4927,
      "fabric": 4928,
      "unexpected": 4929,
      "jenna": 4930,
      "catches": 4931,
      "marriage": 4932,
      "mater": 4933,
      "aoedona": 4934,
      "ults": 4935,
      "cough": 4936,
      "include": 4937,
      "material": 4938,
      "sighs": 4939,
      "zes": 4940,
      "staring": 4941,
      "knowledge": 4942,
      "rocking": 4943,
      "student": 4944,
      "pretends": 4945,
      "matched": 4946,
      "hoppy": 4947,
      "completed": 4948,
      "stamps": 4949,
      "curtains": 4950,
      "sports": 4951,
      "ler": 4952,
      "balancing": 4953,
      "vanish": 4954,
      "bloomed": 4955,
      "direction": 4956,
      "ads": 4957,
      "nets": 4958,
      "although": 4959,
      "dusty": 4960,
      "safer": 4961,
      "awesome": 4962,
      "threat": 4963,
      "figured": 4964,
      "theirs": 4965,
      "suzie": 4966,
      "rusty": 4967,
      "yeah": 4968,
      "exha": 4969,
      "roaring": 4970,
      "master": 4971,
      "situation": 4972,
      "nick": 4973,
      "wedding": 4974,
      "seven": 4975,
      "aoes": 4976,
      "workers": 4977,
      "librarian": 4978,
      "shivered": 4979,
      "hugging": 4980,
      "importance": 4981,
      "cindy": 4982,
      "bottles": 4983,
      "exhau": 4984,
      "wil": 4985,
      "hell": 4986,
      "cheering": 4987,
      "sled": 4988,
      "sorted": 4989,
      "passing": 4990,
      "crabs": 4991,
      "cana": 4992,
      "achieve": 4993,
      "solution": 4994,
      "lizzie": 4995,
      "crumbs": 4996,
      "sobb": 4997,
      "bravery": 4998,
      "introduced": 4999
    },
    "merges": [
      [
        "h",
        "e"
      ],
      [
        "t",
        "he"
      ],
      [
        "a",
        "n"
      ],
      [
        "e",
        "d"
      ],
      [
        "t",
        "o"
      ],
      [
        "an",
        "d"
      ],
      [
        "i",
        "n"
      ],
      [
        "i",
        "t"
      ],
      [
        "r",
        "e"
      ],
      [
        "a",
        "s"
      ],
      [
        "o",
        "u"
      ],
      [
        "o",
        "n"
      ],
      [
        "h",
        "a"
      ],
      [
        "e",
        "r"
      ],
      [
        "w",
        "as"
      ],
      [
        "a",
        "r"
      ],
      [
        "e",
        "n"
      ],
      [
        "a",
        "y"
      ],
      [
        "s",
        "he"
      ],
      [
        "in",
        "g"
      ],
      [
        "o",
        "m"
      ],
      [
        "i",
        "s"
      ],
      [
        "i",
        "l"
      ],
      [
        "i",
        "d"
      ],
      [
        "s",
        "a"
      ],
      [
        "the",
        "y"
      ],
      [
        "l",
        "e"
      ],
      [
        "i",
        "m"
      ],
      [
        "a",
        "l"
      ],
      [
        "l",
        "o"
      ],
      [
        "o",
        "r"
      ],
      [
        "he",
        "r"
      ],
      [
        "t",
        "h"
      ],
      [
        "s",
        "t"
      ],
      [
        "i",
        "r"
      ],
      [
        "a",
        "t"
      ],
      [
        "b",
        "e"
      ],
      [
        "n",
        "o"
      ],
      [
        "ha",
        "t"
      ],
      [
        "v",
        "er"
      ],
      [
        "y",
        "ou"
      ],
      [
        "u",
        "t"
      ],
      [
        "k",
        "e"
      ],
      [
        "s",
        "e"
      ],
      [
        "c",
        "k"
      ],
      [
        "l",
        "d"
      ],
      [
        "c",
        "e"
      ],
      [
        "sa",
        "id"
      ],
      [
        "v",
        "e"
      ],
      [
        "s",
        "o"
      ],
      [
        "r",
        "i"
      ],
      [
        "il",
        "y"
      ],
      [
        "t",
        "im"
      ],
      [
        "w",
        "e"
      ],
      [
        "p",
        "l"
      ],
      [
        "h",
        "is"
      ],
      [
        "w",
        "it"
      ],
      [
        "a",
        "m"
      ],
      [
        "wit",
        "h"
      ],
      [
        "p",
        "p"
      ],
      [
        "m",
        "om"
      ],
      [
        "a",
        "d"
      ],
      [
        "i",
        "g"
      ],
      [
        "on",
        "e"
      ],
      [
        "l",
        "ily"
      ],
      [
        "u",
        "n"
      ],
      [
        "o",
        "f"
      ],
      [
        "o",
        "k"
      ],
      [
        "t",
        "hat"
      ],
      [
        "l",
        "y"
      ],
      [
        "d",
        "ay"
      ],
      [
        "ver",
        "y"
      ],
      [
        "b",
        "ut"
      ],
      [
        "l",
        "i"
      ],
      [
        "d",
        "o"
      ],
      [
        "om",
        "e"
      ],
      [
        "g",
        "o"
      ],
      [
        "h",
        "o"
      ],
      [
        "an",
        "t"
      ],
      [
        "n",
        "e"
      ],
      [
        "u",
        "p"
      ],
      [
        "m",
        "y"
      ],
      [
        "e",
        "s"
      ],
      [
        "b",
        "o"
      ],
      [
        "pl",
        "ay"
      ],
      [
        "ha",
        "d"
      ],
      [
        "c",
        "h"
      ],
      [
        "f",
        "or"
      ],
      [
        "al",
        "l"
      ],
      [
        "r",
        "o"
      ],
      [
        "f",
        "e"
      ],
      [
        "ou",
        "ld"
      ],
      [
        "en",
        "d"
      ],
      [
        "k",
        "ed"
      ],
      [
        "t",
        "le"
      ],
      [
        "a",
        "re"
      ],
      [
        "ha",
        "pp"
      ],
      [
        "w",
        "ant"
      ],
      [
        "ou",
        "n"
      ],
      [
        "g",
        "e"
      ],
      [
        "en",
        "t"
      ],
      [
        "ou",
        "t"
      ],
      [
        "m",
        "a"
      ],
      [
        "no",
        "t"
      ],
      [
        "the",
        "re"
      ],
      [
        "l",
        "it"
      ],
      [
        "oun",
        "d"
      ],
      [
        "the",
        "r"
      ],
      [
        "lit",
        "tle"
      ],
      [
        "tim",
        "e"
      ],
      [
        "r",
        "y"
      ],
      [
        "r",
        "a"
      ],
      [
        "h",
        "t"
      ],
      [
        "happ",
        "y"
      ],
      [
        "s",
        "m"
      ],
      [
        "b",
        "ig"
      ],
      [
        "f",
        "ri"
      ],
      [
        "sa",
        "w"
      ],
      [
        "lo",
        "ok"
      ],
      [
        "s",
        "ome"
      ],
      [
        "fri",
        "end"
      ],
      [
        "a",
        "ck"
      ],
      [
        "th",
        "ing"
      ],
      [
        "u",
        "l"
      ],
      [
        "id",
        "e"
      ],
      [
        "we",
        "re"
      ],
      [
        "u",
        "g"
      ],
      [
        "v",
        "ed"
      ],
      [
        "w",
        "ay"
      ],
      [
        "on",
        "ce"
      ],
      [
        "s",
        "p"
      ],
      [
        "w",
        "he"
      ],
      [
        "c",
        "ar"
      ],
      [
        "to",
        "m"
      ],
      [
        "h",
        "im"
      ],
      [
        "t",
        "er"
      ],
      [
        "b",
        "en"
      ],
      [
        "s",
        "u"
      ],
      [
        "e",
        "l"
      ],
      [
        "ir",
        "l"
      ],
      [
        "the",
        "ir"
      ],
      [
        "want",
        "ed"
      ],
      [
        "il",
        "l"
      ],
      [
        "the",
        "m"
      ],
      [
        "g",
        "irl"
      ],
      [
        "up",
        "on"
      ],
      [
        "f",
        "ul"
      ],
      [
        "n",
        "t"
      ],
      [
        "m",
        "o"
      ],
      [
        "c",
        "o"
      ],
      [
        "c",
        "an"
      ],
      [
        "m",
        "e"
      ],
      [
        "d",
        "id"
      ],
      [
        "he",
        "l"
      ],
      [
        "sm",
        "il"
      ],
      [
        "ha",
        "ve"
      ],
      [
        "c",
        "ould"
      ],
      [
        "f",
        "r"
      ],
      [
        "t",
        "ed"
      ],
      [
        "e",
        "c"
      ],
      [
        "s",
        "h"
      ],
      [
        "in",
        "d"
      ],
      [
        "e",
        "x"
      ],
      [
        "a",
        "g"
      ],
      [
        "w",
        "ent"
      ],
      [
        "t",
        "a"
      ],
      [
        "ne",
        "w"
      ],
      [
        "o",
        "d"
      ],
      [
        "hel",
        "p"
      ],
      [
        "friend",
        "s"
      ],
      [
        "n",
        "am"
      ],
      [
        "w",
        "hat"
      ],
      [
        "ar",
        "d"
      ],
      [
        "s",
        "ay"
      ],
      [
        "whe",
        "n"
      ],
      [
        "t",
        "s"
      ],
      [
        "u",
        "m"
      ],
      [
        "b",
        "ack"
      ],
      [
        "fe",
        "l"
      ],
      [
        "u",
        "r"
      ],
      [
        "li",
        "ke"
      ],
      [
        "w",
        "n"
      ],
      [
        "fr",
        "om"
      ],
      [
        "f",
        "un"
      ],
      [
        "m",
        "an"
      ],
      [
        "f",
        "o"
      ],
      [
        "c",
        "he"
      ],
      [
        "ar",
        "k"
      ],
      [
        "to",
        "o"
      ],
      [
        "s",
        "ide"
      ],
      [
        "the",
        "n"
      ],
      [
        "r",
        "an"
      ],
      [
        "i",
        "c"
      ],
      [
        "g",
        "ht"
      ],
      [
        "j",
        "o"
      ],
      [
        "e",
        "very"
      ],
      [
        "st",
        "ar"
      ],
      [
        "l",
        "a"
      ],
      [
        "tim",
        "my"
      ],
      [
        "smil",
        "ed"
      ],
      [
        "nam",
        "ed"
      ],
      [
        "p",
        "r"
      ],
      [
        "se",
        "e"
      ],
      [
        "lo",
        "ved"
      ],
      [
        "s",
        "to"
      ],
      [
        "a",
        "in"
      ],
      [
        "to",
        "y"
      ],
      [
        "no",
        "w"
      ],
      [
        "as",
        "ked"
      ],
      [
        "fel",
        "t"
      ],
      [
        "look",
        "ed"
      ],
      [
        "p",
        "e"
      ],
      [
        "lo",
        "w"
      ],
      [
        "i",
        "ck"
      ],
      [
        "ar",
        "ound"
      ],
      [
        "ho",
        "w"
      ],
      [
        "a",
        "b"
      ],
      [
        "am",
        "e"
      ],
      [
        "ma",
        "ke"
      ],
      [
        "b",
        "ir"
      ],
      [
        "w",
        "ould"
      ],
      [
        "re",
        "e"
      ],
      [
        "bo",
        "y"
      ],
      [
        "w",
        "or"
      ],
      [
        "o",
        "ther"
      ],
      [
        "on",
        "g"
      ],
      [
        "bir",
        "d"
      ],
      [
        "i",
        "ce"
      ],
      [
        "g",
        "r"
      ],
      [
        "n",
        "a"
      ],
      [
        "c",
        "a"
      ],
      [
        "m",
        "ad"
      ],
      [
        "th",
        "an"
      ],
      [
        "o",
        "p"
      ],
      [
        "it",
        "s"
      ],
      [
        "mom",
        "my"
      ],
      [
        "say",
        "s"
      ],
      [
        "a",
        "way"
      ],
      [
        "s",
        "s"
      ],
      [
        "to",
        "ge"
      ],
      [
        "d",
        "ad"
      ],
      [
        "toge",
        "ther"
      ],
      [
        "w",
        "at"
      ],
      [
        "d",
        "d"
      ],
      [
        "star",
        "ted"
      ],
      [
        "ou",
        "d"
      ],
      [
        "mad",
        "e"
      ],
      [
        "some",
        "thing"
      ],
      [
        "ig",
        "ht"
      ],
      [
        "c",
        "ame"
      ],
      [
        "i",
        "e"
      ],
      [
        "p",
        "ark"
      ],
      [
        "go",
        "od"
      ],
      [
        "sa",
        "d"
      ],
      [
        "i",
        "f"
      ],
      [
        "p",
        "ut"
      ],
      [
        "it",
        "ed"
      ],
      [
        "w",
        "ho"
      ],
      [
        "ex",
        "c"
      ],
      [
        "go",
        "t"
      ],
      [
        "l",
        "u"
      ],
      [
        "s",
        "car"
      ],
      [
        "ag",
        "ain"
      ],
      [
        "m",
        "u"
      ],
      [
        "h",
        "ome"
      ],
      [
        "ge",
        "t"
      ],
      [
        "a",
        "ve"
      ],
      [
        "w",
        "al"
      ],
      [
        "on",
        "t"
      ],
      [
        "w",
        "o"
      ],
      [
        "e",
        "p"
      ],
      [
        "ri",
        "ed"
      ],
      [
        "f",
        "ound"
      ],
      [
        "pp",
        "ed"
      ],
      [
        "d",
        "ec"
      ],
      [
        "q",
        "u"
      ],
      [
        "mo",
        "re"
      ],
      [
        "h",
        "ug"
      ],
      [
        "u",
        "re"
      ],
      [
        "play",
        "ing"
      ],
      [
        "b",
        "y"
      ],
      [
        "a",
        "ch"
      ],
      [
        "ou",
        "ght"
      ],
      [
        "k",
        "ing"
      ],
      [
        "p",
        "o"
      ],
      [
        "l",
        "l"
      ],
      [
        "sa",
        "m"
      ],
      [
        "thing",
        "s"
      ],
      [
        "w",
        "h"
      ],
      [
        "li",
        "ked"
      ],
      [
        "d",
        "er"
      ],
      [
        "you",
        "r"
      ],
      [
        "exc",
        "ited"
      ],
      [
        "y",
        "es"
      ],
      [
        "ou",
        "s"
      ],
      [
        "n",
        "y"
      ],
      [
        "s",
        "ha"
      ],
      [
        "id",
        "ed"
      ],
      [
        "f",
        "a"
      ],
      [
        "t",
        "y"
      ],
      [
        "ar",
        "a"
      ],
      [
        "a",
        "f"
      ],
      [
        "ou",
        "se"
      ],
      [
        "do",
        "g"
      ],
      [
        "dec",
        "ided"
      ],
      [
        "c",
        "are"
      ],
      [
        "b",
        "u"
      ],
      [
        "scar",
        "ed"
      ],
      [
        "th",
        "is"
      ],
      [
        "r",
        "u"
      ],
      [
        "do",
        "wn"
      ],
      [
        "ar",
        "n"
      ],
      [
        "u",
        "se"
      ],
      [
        "f",
        "ind"
      ],
      [
        "ta",
        "ke"
      ],
      [
        "w",
        "ill"
      ],
      [
        "c",
        "lo"
      ],
      [
        "j",
        "u"
      ],
      [
        "fe",
        "el"
      ],
      [
        "an",
        "na"
      ],
      [
        "at",
        "e"
      ],
      [
        "s",
        "ara"
      ],
      [
        "c",
        "ome"
      ],
      [
        "way",
        "s"
      ],
      [
        "ou",
        "r"
      ],
      [
        "s",
        "or"
      ],
      [
        "an",
        "g"
      ],
      [
        "ma",
        "x"
      ],
      [
        "p",
        "re"
      ],
      [
        "er",
        "s"
      ],
      [
        "t",
        "e"
      ],
      [
        "al",
        "ways"
      ],
      [
        "b",
        "b"
      ],
      [
        "to",
        "ok"
      ],
      [
        "ab",
        "out"
      ],
      [
        "toy",
        "s"
      ],
      [
        "i",
        "ve"
      ],
      [
        "sp",
        "ec"
      ],
      [
        "is",
        "e"
      ],
      [
        "did",
        "nt"
      ],
      [
        "c",
        "at"
      ],
      [
        "t",
        "ree"
      ],
      [
        "out",
        "side"
      ],
      [
        "m",
        "i"
      ],
      [
        "o",
        "ld"
      ],
      [
        "al",
        "ly"
      ],
      [
        "th",
        "ought"
      ],
      [
        "en",
        "ed"
      ],
      [
        "che",
        "d"
      ],
      [
        "le",
        "arn"
      ],
      [
        "ro",
        "om"
      ],
      [
        "d",
        "e"
      ],
      [
        "s",
        "w"
      ],
      [
        "fo",
        "re"
      ],
      [
        "k",
        "now"
      ],
      [
        "it",
        "e"
      ],
      [
        "i",
        "al"
      ],
      [
        "la",
        "ug"
      ],
      [
        "sor",
        "ry"
      ],
      [
        "w",
        "a"
      ],
      [
        "b",
        "all"
      ],
      [
        "spec",
        "ial"
      ],
      [
        "r",
        "un"
      ],
      [
        "in",
        "side"
      ],
      [
        "g",
        "ed"
      ],
      [
        "le",
        "ts"
      ],
      [
        "an",
        "y"
      ],
      [
        "k",
        "new"
      ],
      [
        "su",
        "dd"
      ],
      [
        "sudd",
        "en"
      ],
      [
        "b",
        "le"
      ],
      [
        "d",
        "ont"
      ],
      [
        "in",
        "k"
      ],
      [
        "h",
        "ouse"
      ],
      [
        "ne",
        "ver"
      ],
      [
        "is",
        "h"
      ],
      [
        "ju",
        "st"
      ],
      [
        "u",
        "s"
      ],
      [
        "af",
        "ter"
      ],
      [
        "r",
        "ed"
      ],
      [
        "sudden",
        "ly"
      ],
      [
        "s",
        "how"
      ],
      [
        "is",
        "t"
      ],
      [
        "l",
        "f"
      ],
      [
        "j",
        "ack"
      ],
      [
        "mu",
        "ch"
      ],
      [
        "l",
        "ed"
      ],
      [
        "care",
        "ful"
      ],
      [
        "h",
        "and"
      ],
      [
        "d",
        "re"
      ],
      [
        "c",
        "le"
      ],
      [
        "s",
        "un"
      ],
      [
        "f",
        "in"
      ],
      [
        "c",
        "re"
      ],
      [
        "he",
        "d"
      ],
      [
        "s",
        "k"
      ],
      [
        "v",
        "en"
      ],
      [
        "sp",
        "o"
      ],
      [
        "g",
        "ave"
      ],
      [
        "ar",
        "m"
      ],
      [
        "wat",
        "er"
      ],
      [
        "in",
        "to"
      ],
      [
        "t",
        "ried"
      ],
      [
        "l",
        "ong"
      ],
      [
        "e",
        "ach"
      ],
      [
        "bo",
        "x"
      ],
      [
        "as",
        "t"
      ],
      [
        "to",
        "ld"
      ],
      [
        "pr",
        "oud"
      ],
      [
        "lo",
        "ve"
      ],
      [
        "he",
        "ard"
      ],
      [
        "o",
        "ver"
      ],
      [
        "p",
        "a"
      ],
      [
        "t",
        "ter"
      ],
      [
        "re",
        "ad"
      ],
      [
        "g",
        "re"
      ],
      [
        "than",
        "k"
      ],
      [
        "e",
        "at"
      ],
      [
        "ha",
        "r"
      ],
      [
        "d",
        "y"
      ],
      [
        "um",
        "p"
      ],
      [
        "b",
        "r"
      ],
      [
        "c",
        "l"
      ],
      [
        "pre",
        "t"
      ],
      [
        "p",
        "ick"
      ],
      [
        "play",
        "ed"
      ],
      [
        "e",
        "ar"
      ],
      [
        "could",
        "nt"
      ],
      [
        "i",
        "on"
      ],
      [
        "hug",
        "ged"
      ],
      [
        "ca",
        "use"
      ],
      [
        "mi",
        "a"
      ],
      [
        "be",
        "cause"
      ],
      [
        "ri",
        "ght"
      ],
      [
        "of",
        "f"
      ],
      [
        "un",
        "t"
      ],
      [
        "whe",
        "re"
      ],
      [
        "n",
        "ice"
      ],
      [
        "she",
        "d"
      ],
      [
        "il",
        "e"
      ],
      [
        "man",
        "y"
      ],
      [
        "c",
        "om"
      ],
      [
        "ex",
        "p"
      ],
      [
        "f",
        "ly"
      ],
      [
        "ne",
        "ed"
      ],
      [
        "be",
        "ar"
      ],
      [
        "f",
        "low"
      ],
      [
        "t",
        "ry"
      ],
      [
        "sm",
        "all"
      ],
      [
        "t",
        "ing"
      ],
      [
        "l",
        "ad"
      ],
      [
        "v",
        "ing"
      ],
      [
        "an",
        "im"
      ],
      [
        "anim",
        "al"
      ],
      [
        "a",
        "c"
      ],
      [
        "sh",
        "in"
      ],
      [
        "ra",
        "bb"
      ],
      [
        "ou",
        "g"
      ],
      [
        "oug",
        "h"
      ],
      [
        "b",
        "er"
      ],
      [
        "unt",
        "il"
      ],
      [
        "e",
        "ven"
      ],
      [
        "f",
        "i"
      ],
      [
        "learn",
        "ed"
      ],
      [
        "p",
        "er"
      ],
      [
        "se",
        "lf"
      ],
      [
        "so",
        "on"
      ],
      [
        "b",
        "ed"
      ],
      [
        "every",
        "one"
      ],
      [
        "k",
        "ind"
      ],
      [
        "i",
        "z"
      ],
      [
        "be",
        "a"
      ],
      [
        "be",
        "tter"
      ],
      [
        "ke",
        "t"
      ],
      [
        "g",
        "ive"
      ],
      [
        "a",
        "ce"
      ],
      [
        "b",
        "ro"
      ],
      [
        "c",
        "all"
      ],
      [
        "v",
        "ent"
      ],
      [
        "p",
        "u"
      ],
      [
        "be",
        "st"
      ],
      [
        "t",
        "ur"
      ],
      [
        "c",
        "y"
      ],
      [
        "h",
        "ur"
      ],
      [
        "ck",
        "s"
      ],
      [
        "e",
        "t"
      ],
      [
        "b",
        "ra"
      ],
      [
        "p",
        "le"
      ],
      [
        "as",
        "s"
      ],
      [
        "g",
        "ard"
      ],
      [
        "gard",
        "en"
      ],
      [
        "exp",
        "lo"
      ],
      [
        "t",
        "re"
      ],
      [
        "bea",
        "ut"
      ],
      [
        "re",
        "a"
      ],
      [
        "o",
        "l"
      ],
      [
        "f",
        "le"
      ],
      [
        "a",
        "o"
      ],
      [
        "sk",
        "y"
      ],
      [
        "than",
        "ked"
      ],
      [
        "j",
        "ump"
      ],
      [
        "un",
        "der"
      ],
      [
        "s",
        "ho"
      ],
      [
        "t",
        "ru"
      ],
      [
        "sa",
        "fe"
      ],
      [
        "l",
        "ist"
      ],
      [
        "laug",
        "hed"
      ],
      [
        "as",
        "e"
      ],
      [
        "l",
        "oud"
      ],
      [
        "spo",
        "t"
      ],
      [
        "jo",
        "y"
      ],
      [
        "su",
        "r"
      ],
      [
        "f",
        "t"
      ],
      [
        "i",
        "ful"
      ],
      [
        "beaut",
        "iful"
      ],
      [
        "p",
        "t"
      ],
      [
        "l",
        "ly"
      ],
      [
        "r",
        "ong"
      ],
      [
        "st",
        "ill"
      ],
      [
        "lo",
        "ts"
      ],
      [
        "animal",
        "s"
      ],
      [
        "f",
        "am"
      ],
      [
        "am",
        "a"
      ],
      [
        "w",
        "in"
      ],
      [
        "ra",
        "in"
      ],
      [
        "n",
        "ing"
      ],
      [
        "st",
        "ay"
      ],
      [
        "bo",
        "th"
      ],
      [
        "bo",
        "ok"
      ],
      [
        "jo",
        "h"
      ],
      [
        "m",
        "um"
      ],
      [
        "el",
        "l"
      ],
      [
        "joh",
        "n"
      ],
      [
        "b",
        "ad"
      ],
      [
        "t",
        "wo"
      ],
      [
        "ao",
        "e"
      ],
      [
        "c",
        "u"
      ],
      [
        "tur",
        "n"
      ],
      [
        "har",
        "d"
      ],
      [
        "op",
        "le"
      ],
      [
        "pe",
        "ople"
      ],
      [
        "ke",
        "ep"
      ],
      [
        "ok",
        "ay"
      ],
      [
        "bra",
        "ve"
      ],
      [
        "sh",
        "ould"
      ],
      [
        "lily",
        "s"
      ],
      [
        "li",
        "ved"
      ],
      [
        "ang",
        "ry"
      ],
      [
        "gr",
        "ound"
      ],
      [
        "c",
        "t"
      ],
      [
        "ro",
        "w"
      ],
      [
        "lu",
        "cy"
      ],
      [
        "wal",
        "ked"
      ],
      [
        "sur",
        "pr"
      ],
      [
        "ig",
        "h"
      ],
      [
        "hur",
        "t"
      ],
      [
        "fle",
        "w"
      ],
      [
        "fam",
        "ily"
      ],
      [
        "i",
        "shed"
      ],
      [
        "call",
        "ed"
      ],
      [
        "su",
        "re"
      ],
      [
        "or",
        "t"
      ],
      [
        "in",
        "e"
      ],
      [
        "a",
        "pp"
      ],
      [
        "sha",
        "re"
      ],
      [
        "f",
        "ast"
      ],
      [
        "do",
        "or"
      ],
      [
        "wh",
        "ile"
      ],
      [
        "ke",
        "pt"
      ],
      [
        "re",
        "al"
      ],
      [
        "be",
        "fore"
      ],
      [
        "lu",
        "e"
      ],
      [
        "p",
        "ic"
      ],
      [
        "is",
        "ed"
      ],
      [
        "s",
        "l"
      ],
      [
        "pret",
        "ty"
      ],
      [
        "cle",
        "an"
      ],
      [
        "m",
        "ay"
      ],
      [
        "x",
        "t"
      ],
      [
        "go",
        "ing"
      ],
      [
        "lo",
        "t"
      ],
      [
        "clo",
        "s"
      ],
      [
        "ne",
        "xt"
      ],
      [
        "no",
        "ise"
      ],
      [
        "do",
        "ll"
      ],
      [
        "wh",
        "y"
      ],
      [
        "ab",
        "le"
      ],
      [
        "shin",
        "y"
      ],
      [
        "an",
        "e"
      ],
      [
        "ad",
        "vent"
      ],
      [
        "c",
        "ry"
      ],
      [
        "op",
        "ened"
      ],
      [
        "im",
        "p"
      ],
      [
        "gr",
        "and"
      ],
      [
        "k",
        "it"
      ],
      [
        "feel",
        "ing"
      ],
      [
        "w",
        "on"
      ],
      [
        "pl",
        "ace"
      ],
      [
        "il",
        "ly"
      ],
      [
        "explo",
        "re"
      ],
      [
        "d",
        "ra"
      ],
      [
        "al",
        "so"
      ],
      [
        "e",
        "m"
      ],
      [
        "il",
        "d"
      ],
      [
        "me",
        "m"
      ],
      [
        "no",
        "dd"
      ],
      [
        "co",
        "lo"
      ],
      [
        "bo",
        "b"
      ],
      [
        "u",
        "ck"
      ],
      [
        "ide",
        "a"
      ],
      [
        "nodd",
        "ed"
      ],
      [
        "m",
        "ar"
      ],
      [
        "li",
        "e"
      ],
      [
        "h",
        "as"
      ],
      [
        "f",
        "ish"
      ],
      [
        "he",
        "ar"
      ],
      [
        "i",
        "ed"
      ],
      [
        "t",
        "al"
      ],
      [
        "colo",
        "r"
      ],
      [
        "as",
        "k"
      ],
      [
        "b",
        "lue"
      ],
      [
        "he",
        "ad"
      ],
      [
        "cl",
        "im"
      ],
      [
        "fa",
        "ce"
      ],
      [
        "i",
        "es"
      ],
      [
        "pick",
        "ed"
      ],
      [
        "th",
        "ree"
      ],
      [
        "se",
        "t"
      ],
      [
        "wal",
        "king"
      ],
      [
        "smil",
        "e"
      ],
      [
        "wor",
        "k"
      ],
      [
        "may",
        "be"
      ],
      [
        "be",
        "ing"
      ],
      [
        "p",
        "ar"
      ],
      [
        "le",
        "t"
      ],
      [
        "le",
        "ss"
      ],
      [
        "t",
        "ure"
      ],
      [
        "es",
        "s"
      ],
      [
        "r",
        "ing"
      ],
      [
        "advent",
        "ure"
      ],
      [
        "list",
        "en"
      ],
      [
        "by",
        "e"
      ],
      [
        "look",
        "ing"
      ],
      [
        "ha",
        "ir"
      ],
      [
        "fin",
        "ally"
      ],
      [
        "v",
        "o"
      ],
      [
        "ic",
        "ed"
      ],
      [
        "th",
        "ink"
      ],
      [
        "pic",
        "ture"
      ],
      [
        "d",
        "if"
      ],
      [
        "fo",
        "od"
      ],
      [
        "st",
        "e"
      ],
      [
        "wa",
        "it"
      ],
      [
        "e",
        "ver"
      ],
      [
        "i",
        "ous"
      ],
      [
        "n",
        "ight"
      ],
      [
        "le",
        "s"
      ],
      [
        "wal",
        "k"
      ],
      [
        "us",
        "ed"
      ],
      [
        "re",
        "mem"
      ],
      [
        "e",
        "yes"
      ],
      [
        "he",
        "re"
      ],
      [
        "b",
        "lo"
      ],
      [
        "ug",
        "ht"
      ],
      [
        "d",
        "a"
      ],
      [
        "flow",
        "ers"
      ],
      [
        "sto",
        "pped"
      ],
      [
        "b",
        "l"
      ],
      [
        "s",
        "qu"
      ],
      [
        "en",
        "joy"
      ],
      [
        "o",
        "wn"
      ],
      [
        "gre",
        "at"
      ],
      [
        "co",
        "ok"
      ],
      [
        "that",
        "s"
      ],
      [
        "sh",
        "out"
      ],
      [
        "ri",
        "es"
      ],
      [
        "remem",
        "ber"
      ],
      [
        "won",
        "der"
      ],
      [
        "m",
        "on"
      ],
      [
        "qu",
        "ick"
      ],
      [
        "y",
        "ear"
      ],
      [
        "wat",
        "ch"
      ],
      [
        "hand",
        "s"
      ],
      [
        "ne",
        "ar"
      ],
      [
        "re",
        "pl"
      ],
      [
        "ir",
        "st"
      ],
      [
        "imp",
        "ort"
      ],
      [
        "sl",
        "ide"
      ],
      [
        "not",
        "iced"
      ],
      [
        "p",
        "h"
      ],
      [
        "le",
        "ave"
      ],
      [
        "iz",
        "ed"
      ],
      [
        "d",
        "an"
      ],
      [
        "me",
        "an"
      ],
      [
        "su",
        "e"
      ],
      [
        "fore",
        "st"
      ],
      [
        "l",
        "low"
      ],
      [
        "to",
        "u"
      ],
      [
        "ta",
        "ble"
      ],
      [
        "sto",
        "p"
      ],
      [
        "s",
        "ound"
      ],
      [
        "ama",
        "z"
      ],
      [
        "import",
        "ant"
      ],
      [
        "b",
        "un"
      ],
      [
        "fo",
        "llow"
      ],
      [
        "t",
        "ell"
      ],
      [
        "i",
        "p"
      ],
      [
        "ma",
        "g"
      ],
      [
        "st",
        "ick"
      ],
      [
        "c",
        "ho"
      ],
      [
        "ca",
        "ke"
      ],
      [
        "show",
        "ed"
      ],
      [
        "bo",
        "at"
      ],
      [
        "tru",
        "ck"
      ],
      [
        "m",
        "or"
      ],
      [
        "fe",
        "re"
      ],
      [
        "g",
        "an"
      ],
      [
        "dif",
        "fere"
      ],
      [
        "s",
        "we"
      ],
      [
        "repl",
        "ied"
      ],
      [
        "b",
        "right"
      ],
      [
        "s",
        "ing"
      ],
      [
        "vo",
        "ice"
      ],
      [
        "cre",
        "am"
      ],
      [
        "sw",
        "ing"
      ],
      [
        "m",
        "is"
      ],
      [
        "good",
        "bye"
      ],
      [
        "bo",
        "w"
      ],
      [
        "on",
        "d"
      ],
      [
        "sara",
        "h"
      ],
      [
        "re",
        "st"
      ],
      [
        "ple",
        "ase"
      ],
      [
        "wat",
        "ched"
      ],
      [
        "sto",
        "re"
      ],
      [
        "d",
        "is"
      ],
      [
        "g",
        "u"
      ],
      [
        "st",
        "rong"
      ],
      [
        "quick",
        "ly"
      ],
      [
        "cu",
        "ri"
      ],
      [
        "to",
        "r"
      ],
      [
        "do",
        "es"
      ],
      [
        "to",
        "w"
      ],
      [
        "be",
        "en"
      ],
      [
        "st",
        "and"
      ],
      [
        "f",
        "lo"
      ],
      [
        "rabb",
        "it"
      ],
      [
        "b",
        "it"
      ],
      [
        "differe",
        "nt"
      ],
      [
        "n",
        "er"
      ],
      [
        "hel",
        "lo"
      ],
      [
        "bird",
        "s"
      ],
      [
        "dad",
        "dy"
      ],
      [
        "f",
        "irst"
      ],
      [
        "be",
        "came"
      ],
      [
        "read",
        "y"
      ],
      [
        "h",
        "igh"
      ],
      [
        "curi",
        "ous"
      ],
      [
        "clos",
        "er"
      ],
      [
        "s",
        "and"
      ],
      [
        "l",
        "il"
      ],
      [
        "w",
        "arm"
      ],
      [
        "ke",
        "y"
      ],
      [
        "un",
        "g"
      ],
      [
        "laug",
        "h"
      ],
      [
        "um",
        "my"
      ],
      [
        "dre",
        "ss"
      ],
      [
        "op",
        "en"
      ],
      [
        "t",
        "en"
      ],
      [
        "f",
        "ro"
      ],
      [
        "j",
        "ane"
      ],
      [
        "p",
        "ie"
      ],
      [
        "le",
        "ep"
      ],
      [
        "any",
        "more"
      ],
      [
        "fa",
        "v"
      ],
      [
        "r",
        "ough"
      ],
      [
        "p",
        "ul"
      ],
      [
        "p",
        "ain"
      ],
      [
        "lil",
        "a"
      ],
      [
        "g",
        "rabb"
      ],
      [
        "k",
        "id"
      ],
      [
        "ir",
        "ed"
      ],
      [
        "flow",
        "er"
      ],
      [
        "s",
        "it"
      ],
      [
        "on",
        "ly"
      ],
      [
        "l",
        "ight"
      ],
      [
        "fi",
        "re"
      ],
      [
        "jo",
        "e"
      ],
      [
        "bun",
        "ny"
      ],
      [
        "grabb",
        "ed"
      ],
      [
        "but",
        "ter"
      ],
      [
        "y",
        "el"
      ],
      [
        "m",
        "ed"
      ],
      [
        "fel",
        "l"
      ],
      [
        "tim",
        "es"
      ],
      [
        "b",
        "a"
      ],
      [
        "d",
        "ro"
      ],
      [
        "is",
        "y"
      ],
      [
        "ro",
        "ck"
      ],
      [
        "c",
        "ut"
      ],
      [
        "che",
        "n"
      ],
      [
        "kit",
        "chen"
      ],
      [
        "de",
        "li"
      ],
      [
        "jump",
        "ed"
      ],
      [
        "f",
        "f"
      ],
      [
        "p",
        "are"
      ],
      [
        "o",
        "w"
      ],
      [
        "g",
        "lad"
      ],
      [
        "er",
        "ed"
      ],
      [
        "as",
        "h"
      ],
      [
        "help",
        "ed"
      ],
      [
        "b",
        "rea"
      ],
      [
        "c",
        "ket"
      ],
      [
        "to",
        "p"
      ],
      [
        "se",
        "es"
      ],
      [
        "a",
        "ir"
      ],
      [
        "grand",
        "ma"
      ],
      [
        "happ",
        "ened"
      ],
      [
        "we",
        "l"
      ],
      [
        "gr",
        "ass"
      ],
      [
        "shout",
        "ed"
      ],
      [
        "pr",
        "in"
      ],
      [
        "re",
        "l"
      ],
      [
        "do",
        "w"
      ],
      [
        "bro",
        "ther"
      ],
      [
        "y",
        "ummy"
      ],
      [
        "ha",
        "ving"
      ],
      [
        "rea",
        "ched"
      ],
      [
        "b",
        "al"
      ],
      [
        "sto",
        "ry"
      ],
      [
        "tom",
        "my"
      ],
      [
        "re",
        "ally"
      ],
      [
        "c",
        "ont"
      ],
      [
        "lad",
        "y"
      ],
      [
        "st",
        "er"
      ],
      [
        "real",
        "ized"
      ],
      [
        "pare",
        "nt"
      ],
      [
        "d",
        "in"
      ],
      [
        "b",
        "or"
      ],
      [
        "so",
        "ft"
      ],
      [
        "g",
        "ame"
      ],
      [
        "dra",
        "w"
      ],
      [
        "th",
        "rough"
      ],
      [
        "com",
        "ing"
      ],
      [
        "pret",
        "end"
      ],
      [
        "pie",
        "ce"
      ],
      [
        "fav",
        "or"
      ],
      [
        "z",
        "y"
      ],
      [
        "favor",
        "ite"
      ],
      [
        "look",
        "s"
      ],
      [
        "t",
        "ra"
      ],
      [
        "mag",
        "ic"
      ],
      [
        "kid",
        "s"
      ],
      [
        "r",
        "ay"
      ],
      [
        "wo",
        "w"
      ],
      [
        "ma",
        "king"
      ],
      [
        "d",
        "one"
      ],
      [
        "co",
        "l"
      ],
      [
        "swe",
        "et"
      ],
      [
        "car",
        "s"
      ],
      [
        "wor",
        "ld"
      ],
      [
        "c",
        "ra"
      ],
      [
        "on",
        "s"
      ],
      [
        "be",
        "gan"
      ],
      [
        "him",
        "self"
      ],
      [
        "pr",
        "om"
      ],
      [
        "some",
        "times"
      ],
      [
        "mo",
        "ve"
      ],
      [
        "p",
        "ed"
      ],
      [
        "p",
        "ond"
      ],
      [
        "t",
        "ired"
      ],
      [
        "wa",
        "ved"
      ],
      [
        "m",
        "ouse"
      ],
      [
        "ck",
        "ed"
      ],
      [
        "tou",
        "ch"
      ],
      [
        "f",
        "ill"
      ],
      [
        "fi",
        "x"
      ],
      [
        "ho",
        "ld"
      ],
      [
        "parent",
        "s"
      ],
      [
        "wor",
        "ry"
      ],
      [
        "fun",
        "ny"
      ],
      [
        "cat",
        "ch"
      ],
      [
        "s",
        "n"
      ],
      [
        "nam",
        "e"
      ],
      [
        "gre",
        "en"
      ],
      [
        "c",
        "ried"
      ],
      [
        "blo",
        "cks"
      ],
      [
        "co",
        "ld"
      ],
      [
        "deli",
        "c"
      ],
      [
        "at",
        "er"
      ],
      [
        "an",
        "other"
      ],
      [
        "se",
        "en"
      ],
      [
        "i",
        "ent"
      ],
      [
        "one",
        "y"
      ],
      [
        "f",
        "arm"
      ],
      [
        "p",
        "ro"
      ],
      [
        "co",
        "ol"
      ],
      [
        "ho",
        "pped"
      ],
      [
        "c",
        "ant"
      ],
      [
        "surpr",
        "ise"
      ],
      [
        "c",
        "or"
      ],
      [
        "ri",
        "ver"
      ],
      [
        "da",
        "isy"
      ],
      [
        "do",
        "ing"
      ],
      [
        "sa",
        "lly"
      ],
      [
        "m",
        "ess"
      ],
      [
        "b",
        "ab"
      ],
      [
        "clo",
        "se"
      ],
      [
        "pa",
        "per"
      ],
      [
        "timmy",
        "s"
      ],
      [
        "a",
        "ge"
      ],
      [
        "like",
        "s"
      ],
      [
        "sw",
        "im"
      ],
      [
        "d",
        "s"
      ],
      [
        "tre",
        "es"
      ],
      [
        "h",
        "ind"
      ],
      [
        "clim",
        "b"
      ],
      [
        "turn",
        "ed"
      ],
      [
        "be",
        "hind"
      ],
      [
        "flo",
        "or"
      ],
      [
        "win",
        "dow"
      ],
      [
        "less",
        "on"
      ],
      [
        "year",
        "s"
      ],
      [
        "fro",
        "g"
      ],
      [
        "wo",
        "od"
      ],
      [
        "s",
        "now"
      ],
      [
        "c",
        "la"
      ],
      [
        "w",
        "ished"
      ],
      [
        "b",
        "ag"
      ],
      [
        "g",
        "er"
      ],
      [
        "d",
        "ark"
      ],
      [
        "pp",
        "y"
      ],
      [
        "sa",
        "t"
      ],
      [
        "ful",
        "l"
      ],
      [
        "s",
        "low"
      ],
      [
        "we",
        "ar"
      ],
      [
        "and",
        "y"
      ],
      [
        "run",
        "ning"
      ],
      [
        "yel",
        "low"
      ],
      [
        "pe",
        "t"
      ],
      [
        "wor",
        "ked"
      ],
      [
        "s",
        "leep"
      ],
      [
        "p",
        "at"
      ],
      [
        "f",
        "l"
      ],
      [
        "ho",
        "le"
      ],
      [
        "y",
        "ard"
      ],
      [
        "ig",
        "n"
      ],
      [
        "t",
        "as"
      ],
      [
        "c",
        "as"
      ],
      [
        "bab",
        "y"
      ],
      [
        "happ",
        "ily"
      ],
      [
        "surpr",
        "ised"
      ],
      [
        "ted",
        "dy"
      ],
      [
        "careful",
        "ly"
      ],
      [
        "ra",
        "ce"
      ],
      [
        "s",
        "y"
      ],
      [
        "j",
        "im"
      ],
      [
        "b",
        "ar"
      ],
      [
        "remember",
        "ed"
      ],
      [
        "he",
        "ld"
      ],
      [
        "butter",
        "fly"
      ],
      [
        "lo",
        "st"
      ],
      [
        "ben",
        "ny"
      ],
      [
        "bu",
        "y"
      ],
      [
        "cas",
        "tle"
      ],
      [
        "need",
        "ed"
      ],
      [
        "fa",
        "ir"
      ],
      [
        "any",
        "thing"
      ],
      [
        "b",
        "ug"
      ],
      [
        "m",
        "at"
      ],
      [
        "ch",
        "il"
      ],
      [
        "le",
        "ft"
      ],
      [
        "ar",
        "ri"
      ],
      [
        "f",
        "ar"
      ],
      [
        "enjoy",
        "ed"
      ],
      [
        "w",
        "rong"
      ],
      [
        "dre",
        "n"
      ],
      [
        "d",
        "uck"
      ],
      [
        "at",
        "ion"
      ],
      [
        "dre",
        "am"
      ],
      [
        "chil",
        "dren"
      ],
      [
        "t",
        "ri"
      ],
      [
        "follow",
        "ed"
      ],
      [
        "ag",
        "re"
      ],
      [
        "g",
        "en"
      ],
      [
        "st",
        "ran"
      ],
      [
        "in",
        "ed"
      ],
      [
        "b",
        "illy"
      ],
      [
        "you",
        "re"
      ],
      [
        "h",
        "ung"
      ],
      [
        "w",
        "ind"
      ],
      [
        "a",
        "k"
      ],
      [
        "friend",
        "ly"
      ],
      [
        "h",
        "ill"
      ],
      [
        "d",
        "ir"
      ],
      [
        "v",
        "is"
      ],
      [
        "under",
        "stand"
      ],
      [
        "some",
        "one"
      ],
      [
        "ro",
        "ss"
      ],
      [
        "fin",
        "ished"
      ],
      [
        "delic",
        "ious"
      ],
      [
        "ard",
        "s"
      ],
      [
        "ok",
        "en"
      ],
      [
        "t",
        "all"
      ],
      [
        "ho",
        "t"
      ],
      [
        "bo",
        "t"
      ],
      [
        "m",
        "ight"
      ],
      [
        "her",
        "self"
      ],
      [
        "h",
        "id"
      ],
      [
        "t",
        "r"
      ],
      [
        "in",
        "u"
      ],
      [
        "cont",
        "inu"
      ],
      [
        "agre",
        "ed"
      ],
      [
        "mo",
        "lly"
      ],
      [
        "br",
        "oken"
      ],
      [
        "z",
        "o"
      ],
      [
        "an",
        "ge"
      ],
      [
        "every",
        "where"
      ],
      [
        "ing",
        "s"
      ],
      [
        "el",
        "se"
      ],
      [
        "ce",
        "ss"
      ],
      [
        "a",
        "ther"
      ],
      [
        "for",
        "got"
      ],
      [
        "i",
        "ke"
      ],
      [
        "color",
        "s"
      ],
      [
        "l",
        "and"
      ],
      [
        "am",
        "y"
      ],
      [
        "p",
        "ink"
      ],
      [
        "we",
        "ll"
      ],
      [
        "arri",
        "ved"
      ],
      [
        "wonder",
        "ful"
      ],
      [
        "ie",
        "ld"
      ],
      [
        "other",
        "s"
      ],
      [
        "t",
        "ight"
      ],
      [
        "bu",
        "ild"
      ],
      [
        "j",
        "en"
      ],
      [
        "mo",
        "st"
      ],
      [
        "qu",
        "e"
      ],
      [
        "squ",
        "ir"
      ],
      [
        "er",
        "ous"
      ],
      [
        "fill",
        "ed"
      ],
      [
        "s",
        "ong"
      ],
      [
        "g",
        "one"
      ],
      [
        "c",
        "oun"
      ],
      [
        "f",
        "ur"
      ],
      [
        "want",
        "s"
      ],
      [
        "book",
        "s"
      ],
      [
        "f",
        "ight"
      ],
      [
        "as",
        "ure"
      ],
      [
        "cre",
        "at"
      ],
      [
        "che",
        "s"
      ],
      [
        "squir",
        "rel"
      ],
      [
        "every",
        "thing"
      ],
      [
        "ar",
        "t"
      ],
      [
        "leave",
        "s"
      ],
      [
        "fr",
        "u"
      ],
      [
        "mo",
        "ther"
      ],
      [
        "w",
        "i"
      ],
      [
        "continu",
        "ed"
      ],
      [
        "l",
        "ater"
      ],
      [
        "get",
        "ting"
      ],
      [
        "f",
        "all"
      ],
      [
        "c",
        "ed"
      ],
      [
        "li",
        "on"
      ],
      [
        "en",
        "ough"
      ],
      [
        "brea",
        "k"
      ],
      [
        "mor",
        "ning"
      ],
      [
        "mom",
        "ent"
      ],
      [
        "po",
        "in"
      ],
      [
        "stay",
        "ed"
      ],
      [
        "m",
        "ama"
      ],
      [
        "o",
        "h"
      ],
      [
        "w",
        "his"
      ],
      [
        "cook",
        "ies"
      ],
      [
        "z",
        "e"
      ],
      [
        "st",
        "u"
      ],
      [
        "ask",
        "s"
      ],
      [
        "scar",
        "y"
      ],
      [
        "hung",
        "ry"
      ],
      [
        "p",
        "en"
      ],
      [
        "p",
        "es"
      ],
      [
        "to",
        "day"
      ],
      [
        "en",
        "ce"
      ],
      [
        "sp",
        "ark"
      ],
      [
        "be",
        "ach"
      ],
      [
        "we",
        "t"
      ],
      [
        "make",
        "s"
      ],
      [
        "d",
        "r"
      ],
      [
        "try",
        "ing"
      ],
      [
        "amaz",
        "ing"
      ],
      [
        "smil",
        "es"
      ],
      [
        "f",
        "as"
      ],
      [
        "to",
        "n"
      ],
      [
        "ta",
        "in"
      ],
      [
        "din",
        "ner"
      ],
      [
        "fe",
        "w"
      ],
      [
        "p",
        "ack"
      ],
      [
        "ic",
        "y"
      ],
      [
        "t",
        "w"
      ],
      [
        "clim",
        "bed"
      ],
      [
        "be",
        "e"
      ],
      [
        "fe",
        "ct"
      ],
      [
        "tal",
        "k"
      ],
      [
        "list",
        "ened"
      ],
      [
        "mis",
        "s"
      ],
      [
        "o",
        "t"
      ],
      [
        "h",
        "i"
      ],
      [
        "pl",
        "ain"
      ],
      [
        "picture",
        "s"
      ],
      [
        "ta",
        "il"
      ],
      [
        "k",
        "no"
      ],
      [
        "mu",
        "s"
      ],
      [
        "co",
        "ver"
      ],
      [
        "j",
        "ill"
      ],
      [
        "wh",
        "ite"
      ],
      [
        "per",
        "fect"
      ],
      [
        "s",
        "pl"
      ],
      [
        "ro",
        "ll"
      ],
      [
        "re",
        "w"
      ],
      [
        "s",
        "is"
      ],
      [
        "clo",
        "the"
      ],
      [
        "bal",
        "lo"
      ],
      [
        "pu",
        "ppy"
      ],
      [
        "bro",
        "wn"
      ],
      [
        "b",
        "ike"
      ],
      [
        "clothe",
        "s"
      ],
      [
        "a",
        "v"
      ],
      [
        "d",
        "ang"
      ],
      [
        "w",
        "all"
      ],
      [
        "an",
        "ce"
      ],
      [
        "al",
        "one"
      ],
      [
        "fo",
        "x"
      ],
      [
        "sa",
        "il"
      ],
      [
        "z",
        "z"
      ],
      [
        "ou",
        "p"
      ],
      [
        "br",
        "ought"
      ],
      [
        "app",
        "ear"
      ],
      [
        "t",
        "rain"
      ],
      [
        "at",
        "ed"
      ],
      [
        "stran",
        "ge"
      ],
      [
        "wood",
        "s"
      ],
      [
        "me",
        "t"
      ],
      [
        "pul",
        "led"
      ],
      [
        "ff",
        "y"
      ],
      [
        "g",
        "row"
      ],
      [
        "f",
        "lu"
      ],
      [
        "r",
        "ide"
      ],
      [
        "se",
        "ar"
      ],
      [
        "de",
        "ep"
      ],
      [
        "p",
        "ur"
      ],
      [
        "pl",
        "an"
      ],
      [
        "h",
        "ide"
      ],
      [
        "wa",
        "ited"
      ],
      [
        "h",
        "or"
      ],
      [
        "pp",
        "ing"
      ],
      [
        "dra",
        "g"
      ],
      [
        "mor",
        "al"
      ],
      [
        "l",
        "ing"
      ],
      [
        "na",
        "p"
      ],
      [
        "g",
        "i"
      ],
      [
        "flu",
        "ffy"
      ],
      [
        "mus",
        "ic"
      ],
      [
        "tre",
        "at"
      ],
      [
        "was",
        "nt"
      ],
      [
        "c",
        "on"
      ],
      [
        "amaz",
        "ed"
      ],
      [
        "j",
        "e"
      ],
      [
        "se",
        "s"
      ],
      [
        "s",
        "illy"
      ],
      [
        "la",
        "ke"
      ],
      [
        "th",
        "y"
      ],
      [
        "run",
        "s"
      ],
      [
        "tow",
        "ards"
      ],
      [
        "ba",
        "th"
      ],
      [
        "cl",
        "oud"
      ],
      [
        "d",
        "u"
      ],
      [
        "think",
        "s"
      ],
      [
        "f",
        "ield"
      ],
      [
        "li",
        "ving"
      ],
      [
        "fly",
        "ing"
      ],
      [
        "p",
        "ers"
      ],
      [
        "s",
        "c"
      ],
      [
        "be",
        "lie"
      ],
      [
        "slow",
        "ly"
      ],
      [
        "vis",
        "it"
      ],
      [
        "sha",
        "red"
      ],
      [
        "she",
        "s"
      ],
      [
        "am",
        "es"
      ],
      [
        "prom",
        "ised"
      ],
      [
        "m",
        "ind"
      ],
      [
        "is",
        "es"
      ],
      [
        "qu",
        "ie"
      ],
      [
        "jo",
        "b"
      ],
      [
        "doll",
        "s"
      ],
      [
        "m",
        "oney"
      ],
      [
        "own",
        "er"
      ],
      [
        "dan",
        "ce"
      ],
      [
        "lu",
        "ck"
      ],
      [
        "par",
        "ty"
      ],
      [
        "sis",
        "ter"
      ],
      [
        "c",
        "tor"
      ],
      [
        "quie",
        "t"
      ],
      [
        "fas",
        "ter"
      ],
      [
        "c",
        "up"
      ],
      [
        "mu",
        "st"
      ],
      [
        "m",
        "r"
      ],
      [
        "wor",
        "ried"
      ],
      [
        "g",
        "ra"
      ],
      [
        "e",
        "le"
      ],
      [
        "piece",
        "s"
      ],
      [
        "b",
        "ran"
      ],
      [
        "ig",
        "g"
      ],
      [
        "mar",
        "y"
      ],
      [
        "color",
        "ful"
      ],
      [
        "gr",
        "ate"
      ],
      [
        "um",
        "b"
      ],
      [
        "grate",
        "ful"
      ],
      [
        "an",
        "sw"
      ],
      [
        "g",
        "if"
      ],
      [
        "p",
        "ass"
      ],
      [
        "c",
        "andy"
      ],
      [
        "c",
        "hair"
      ],
      [
        "bro",
        "ke"
      ],
      [
        "as",
        "ed"
      ],
      [
        "big",
        "ger"
      ],
      [
        "ex",
        "plain"
      ],
      [
        "re",
        "ach"
      ],
      [
        "bl",
        "an"
      ],
      [
        "k",
        "is"
      ],
      [
        "t",
        "win"
      ],
      [
        "mom",
        "s"
      ],
      [
        "pl",
        "ant"
      ],
      [
        "m",
        "ent"
      ],
      [
        "jo",
        "in"
      ],
      [
        "m",
        "il"
      ],
      [
        "wel",
        "come"
      ],
      [
        "su",
        "ch"
      ],
      [
        "star",
        "t"
      ],
      [
        "t",
        "in"
      ],
      [
        "he",
        "av"
      ],
      [
        "c",
        "ou"
      ],
      [
        "d",
        "ry"
      ],
      [
        "bo",
        "ard"
      ],
      [
        "bl",
        "ack"
      ],
      [
        "tre",
        "asure"
      ],
      [
        "dang",
        "erous"
      ],
      [
        "sn",
        "ack"
      ],
      [
        "s",
        "cream"
      ],
      [
        "u",
        "ally"
      ],
      [
        "mon",
        "ster"
      ],
      [
        "magic",
        "al"
      ],
      [
        "tow",
        "er"
      ],
      [
        "m",
        "in"
      ],
      [
        "m",
        "ing"
      ],
      [
        "sm",
        "art"
      ],
      [
        "ou",
        "th"
      ],
      [
        "sm",
        "el"
      ],
      [
        "mon",
        "key"
      ],
      [
        "m",
        "outh"
      ],
      [
        "d",
        "ri"
      ],
      [
        "e",
        "vent"
      ],
      [
        "help",
        "ing"
      ],
      [
        "wor",
        "ds"
      ],
      [
        "do",
        "ctor"
      ],
      [
        "ro",
        "t"
      ],
      [
        "o",
        "se"
      ],
      [
        "ac",
        "ross"
      ],
      [
        "prin",
        "cess"
      ],
      [
        "d",
        "i"
      ],
      [
        "twin",
        "s"
      ],
      [
        "ve",
        "s"
      ],
      [
        "st",
        "re"
      ],
      [
        "s",
        "ign"
      ],
      [
        "happ",
        "en"
      ],
      [
        "drag",
        "on"
      ],
      [
        "j",
        "a"
      ],
      [
        "th",
        "rew"
      ],
      [
        "am",
        "p"
      ],
      [
        "our",
        "se"
      ],
      [
        "heav",
        "y"
      ],
      [
        "dir",
        "ty"
      ],
      [
        "ste",
        "pped"
      ],
      [
        "farm",
        "er"
      ],
      [
        "b",
        "ite"
      ],
      [
        "sha",
        "r"
      ],
      [
        "cry",
        "ing"
      ],
      [
        "sa",
        "me"
      ],
      [
        "a",
        "p"
      ],
      [
        "bow",
        "l"
      ],
      [
        "he",
        "al"
      ],
      [
        "w",
        "ave"
      ],
      [
        "n",
        "g"
      ],
      [
        "belie",
        "ve"
      ],
      [
        "ho",
        "ped"
      ],
      [
        "pl",
        "ane"
      ],
      [
        "jim",
        "my"
      ],
      [
        "h",
        "ig"
      ],
      [
        "clos",
        "ed"
      ],
      [
        "mum",
        "my"
      ],
      [
        "w",
        "ag"
      ],
      [
        "b",
        "as"
      ],
      [
        "pre",
        "ss"
      ],
      [
        "pain",
        "t"
      ],
      [
        "appear",
        "ed"
      ],
      [
        "to",
        "wn"
      ],
      [
        "ballo",
        "on"
      ],
      [
        "st",
        "uck"
      ],
      [
        "id",
        "ent"
      ],
      [
        "mi",
        "x"
      ],
      [
        "l",
        "un"
      ],
      [
        "with",
        "out"
      ],
      [
        "po",
        "w"
      ],
      [
        "but",
        "ton"
      ],
      [
        "feel",
        "s"
      ],
      [
        "pul",
        "l"
      ],
      [
        "s",
        "cho"
      ],
      [
        "m",
        "it"
      ],
      [
        "scho",
        "ol"
      ],
      [
        "c",
        "ray"
      ],
      [
        "fair",
        "y"
      ],
      [
        "g",
        "s"
      ],
      [
        "eat",
        "ing"
      ],
      [
        "w",
        "r"
      ],
      [
        "take",
        "s"
      ],
      [
        "c",
        "ourse"
      ],
      [
        "bas",
        "ket"
      ],
      [
        "ch",
        "ild"
      ],
      [
        "it",
        "ing"
      ],
      [
        "r",
        "ound"
      ],
      [
        "ne",
        "igh"
      ],
      [
        "would",
        "nt"
      ],
      [
        "cla",
        "pped"
      ],
      [
        "gen",
        "tle"
      ],
      [
        "pu",
        "shed"
      ],
      [
        "f",
        "ree"
      ],
      [
        "che",
        "e"
      ],
      [
        "com",
        "for"
      ],
      [
        "ph",
        "one"
      ],
      [
        "sto",
        "od"
      ],
      [
        "v",
        "al"
      ],
      [
        "p",
        "op"
      ],
      [
        "event",
        "ually"
      ],
      [
        "hig",
        "her"
      ],
      [
        "kis",
        "s"
      ],
      [
        "te",
        "ac"
      ],
      [
        "shin",
        "e"
      ],
      [
        "t",
        "we"
      ],
      [
        "teac",
        "her"
      ],
      [
        "em",
        "ma"
      ],
      [
        "blan",
        "ket"
      ],
      [
        "dro",
        "ve"
      ],
      [
        "p",
        "s"
      ],
      [
        "sm",
        "o"
      ],
      [
        "co",
        "in"
      ],
      [
        "al",
        "ong"
      ],
      [
        "swing",
        "s"
      ],
      [
        "ste",
        "ad"
      ],
      [
        "m",
        "ine"
      ],
      [
        "mo",
        "ved"
      ],
      [
        "g",
        "ames"
      ],
      [
        "s",
        "na"
      ],
      [
        "no",
        "ises"
      ],
      [
        "st",
        "r"
      ],
      [
        "che",
        "ered"
      ],
      [
        "j",
        "our"
      ],
      [
        "w",
        "ings"
      ],
      [
        "turn",
        "s"
      ],
      [
        "ac",
        "c"
      ],
      [
        "w",
        "ish"
      ],
      [
        "hug",
        "s"
      ],
      [
        "m",
        "ark"
      ],
      [
        "acc",
        "ident"
      ],
      [
        "ar",
        "y"
      ],
      [
        "an",
        "n"
      ],
      [
        "w",
        "ise"
      ],
      [
        "long",
        "er"
      ],
      [
        "th",
        "row"
      ],
      [
        "explain",
        "ed"
      ],
      [
        "s",
        "ang"
      ],
      [
        "l",
        "ate"
      ],
      [
        "ne",
        "y"
      ],
      [
        "ph",
        "ant"
      ],
      [
        "ele",
        "phant"
      ],
      [
        "i",
        "ble"
      ],
      [
        "sto",
        "ne"
      ],
      [
        "ne",
        "ck"
      ],
      [
        "sho",
        "es"
      ],
      [
        "in",
        "stead"
      ],
      [
        "th",
        "ough"
      ],
      [
        "tr",
        "ou"
      ],
      [
        "tin",
        "y"
      ],
      [
        "t",
        "u"
      ],
      [
        "se",
        "a"
      ],
      [
        "f",
        "ence"
      ],
      [
        "app",
        "le"
      ],
      [
        "sing",
        "ing"
      ],
      [
        "d",
        "el"
      ],
      [
        "our",
        "s"
      ],
      [
        "l",
        "one"
      ],
      [
        "se",
        "cre"
      ],
      [
        "sto",
        "ries"
      ],
      [
        "adventure",
        "s"
      ],
      [
        "star",
        "s"
      ],
      [
        "j",
        "ar"
      ],
      [
        "lun",
        "ch"
      ],
      [
        "ow",
        "l"
      ],
      [
        "hear",
        "t"
      ],
      [
        "sho",
        "ok"
      ],
      [
        "lone",
        "ly"
      ],
      [
        "no",
        "thing"
      ],
      [
        "ad",
        "d"
      ],
      [
        "up",
        "set"
      ],
      [
        "h",
        "it"
      ],
      [
        "d",
        "ist"
      ],
      [
        "ne",
        "e"
      ],
      [
        "ta",
        "king"
      ],
      [
        "you",
        "ng"
      ],
      [
        "be",
        "long"
      ],
      [
        "na",
        "ught"
      ],
      [
        "ro",
        "cks"
      ],
      [
        "naught",
        "y"
      ],
      [
        "pur",
        "ple"
      ],
      [
        "d",
        "es"
      ],
      [
        "sh",
        "ip"
      ],
      [
        "po",
        "cket"
      ],
      [
        "sam",
        "my"
      ],
      [
        "be",
        "l"
      ],
      [
        "near",
        "by"
      ],
      [
        "s",
        "oup"
      ],
      [
        "st",
        "ree"
      ],
      [
        "f",
        "used"
      ],
      [
        "for",
        "get"
      ],
      [
        "or",
        "ange"
      ],
      [
        "explo",
        "ring"
      ],
      [
        "ca",
        "ught"
      ],
      [
        "re",
        "s"
      ],
      [
        "what",
        "s"
      ],
      [
        "c",
        "al"
      ],
      [
        "oun",
        "tain"
      ],
      [
        "dro",
        "pped"
      ],
      [
        "br",
        "ing"
      ],
      [
        "back",
        "yard"
      ],
      [
        "sha",
        "pes"
      ],
      [
        "s",
        "li"
      ],
      [
        "sw",
        "am"
      ],
      [
        "s",
        "ent"
      ],
      [
        "whe",
        "never"
      ],
      [
        "dr",
        "ink"
      ],
      [
        "ma",
        "il"
      ],
      [
        "wo",
        "ke"
      ],
      [
        "co",
        "at"
      ],
      [
        "sun",
        "ny"
      ],
      [
        "see",
        "med"
      ],
      [
        "bo",
        "dy"
      ],
      [
        "da",
        "ught"
      ],
      [
        "b",
        "oun"
      ],
      [
        "mit",
        "ten"
      ],
      [
        "day",
        "s"
      ],
      [
        "ju",
        "ice"
      ],
      [
        "co",
        "w"
      ],
      [
        "par",
        "t"
      ],
      [
        "sho",
        "p"
      ],
      [
        "come",
        "s"
      ],
      [
        "re",
        "lie"
      ],
      [
        "ec",
        "t"
      ],
      [
        "bu",
        "sy"
      ],
      [
        "f",
        "it"
      ],
      [
        "ben",
        "ch"
      ],
      [
        "ion",
        "s"
      ],
      [
        "f",
        "ing"
      ],
      [
        "d",
        "river"
      ],
      [
        "s",
        "er"
      ],
      [
        "no",
        "se"
      ],
      [
        "stree",
        "t"
      ],
      [
        "c",
        "ing"
      ],
      [
        "rain",
        "bow"
      ],
      [
        "m",
        "m"
      ],
      [
        "sound",
        "s"
      ],
      [
        "luck",
        "y"
      ],
      [
        "arm",
        "s"
      ],
      [
        "ro",
        "wn"
      ],
      [
        "p",
        "ig"
      ],
      [
        "sit",
        "ting"
      ],
      [
        "h",
        "u"
      ],
      [
        "wonder",
        "ed"
      ],
      [
        "hold",
        "ing"
      ],
      [
        "b",
        "and"
      ],
      [
        "p",
        "il"
      ],
      [
        "bir",
        "th"
      ],
      [
        "po",
        "t"
      ],
      [
        "ug",
        "g"
      ],
      [
        "daught",
        "er"
      ],
      [
        "ne",
        "st"
      ],
      [
        "er",
        "ful"
      ],
      [
        "s",
        "co"
      ],
      [
        "p",
        "ra"
      ],
      [
        "sm",
        "ell"
      ],
      [
        "prom",
        "ise"
      ],
      [
        "c",
        "ir"
      ],
      [
        "i",
        "er"
      ],
      [
        "birth",
        "day"
      ],
      [
        "bot",
        "tle"
      ],
      [
        "zo",
        "om"
      ],
      [
        "s",
        "ick"
      ],
      [
        "secre",
        "t"
      ],
      [
        "ra",
        "id"
      ],
      [
        "af",
        "raid"
      ],
      [
        "love",
        "s"
      ],
      [
        "s",
        "ug"
      ],
      [
        "bran",
        "ch"
      ],
      [
        "cut",
        "e"
      ],
      [
        "ar",
        "s"
      ],
      [
        "pu",
        "sh"
      ],
      [
        "k",
        "ite"
      ],
      [
        "ma",
        "ch"
      ],
      [
        "ul",
        "l"
      ],
      [
        "pat",
        "ient"
      ],
      [
        "c",
        "er"
      ],
      [
        "pe",
        "ace"
      ],
      [
        "t",
        "un"
      ],
      [
        "un",
        "i"
      ],
      [
        "gif",
        "t"
      ],
      [
        "pp",
        "er"
      ],
      [
        "chee",
        "se"
      ],
      [
        "b",
        "read"
      ],
      [
        "fore",
        "ver"
      ],
      [
        "tou",
        "ched"
      ],
      [
        "g",
        "l"
      ],
      [
        "w",
        "and"
      ],
      [
        "gra",
        "b"
      ],
      [
        "id",
        "ge"
      ],
      [
        "relie",
        "ved"
      ],
      [
        "que",
        "st"
      ],
      [
        "she",
        "ll"
      ],
      [
        "li",
        "fe"
      ],
      [
        "sp",
        "in"
      ],
      [
        "hu",
        "ge"
      ],
      [
        "le",
        "tter"
      ],
      [
        "w",
        "ra"
      ],
      [
        "car",
        "ry"
      ],
      [
        "bu",
        "cket"
      ],
      [
        "h",
        "oney"
      ],
      [
        "cover",
        "ed"
      ],
      [
        "li",
        "ve"
      ],
      [
        "ge",
        "st"
      ],
      [
        "in",
        "te"
      ],
      [
        "ho",
        "pe"
      ],
      [
        "he",
        "y"
      ],
      [
        "inte",
        "rest"
      ],
      [
        "ve",
        "l"
      ],
      [
        "swim",
        "ming"
      ],
      [
        "or",
        "n"
      ],
      [
        "g",
        "igg"
      ],
      [
        "on",
        "to"
      ],
      [
        "give",
        "s"
      ],
      [
        "exc",
        "iting"
      ],
      [
        "w",
        "ont"
      ],
      [
        "bu",
        "bb"
      ],
      [
        "cra",
        "w"
      ],
      [
        "creat",
        "ure"
      ],
      [
        "c",
        "ha"
      ],
      [
        "ne",
        "t"
      ],
      [
        "jour",
        "ney"
      ],
      [
        "laugh",
        "ing"
      ],
      [
        "k",
        "ick"
      ],
      [
        "b",
        "ru"
      ],
      [
        "bu",
        "sh"
      ],
      [
        "im",
        "ag"
      ],
      [
        "w",
        "ard"
      ],
      [
        "mil",
        "k"
      ],
      [
        "du",
        "cks"
      ],
      [
        "ac",
        "t"
      ],
      [
        "sun",
        "shine"
      ],
      [
        "jen",
        "ny"
      ],
      [
        "pu",
        "dd"
      ],
      [
        "i",
        "an"
      ],
      [
        "em",
        "ily"
      ],
      [
        "ne",
        "ss"
      ],
      [
        "w",
        "om"
      ],
      [
        "ho",
        "p"
      ],
      [
        "put",
        "s"
      ],
      [
        "co",
        "zy"
      ],
      [
        "wom",
        "an"
      ],
      [
        "mitten",
        "s"
      ],
      [
        "e",
        "as"
      ],
      [
        "neigh",
        "bor"
      ],
      [
        "poin",
        "ted"
      ],
      [
        "su",
        "c"
      ],
      [
        "watch",
        "ing"
      ],
      [
        "col",
        "le"
      ],
      [
        "ca",
        "ve"
      ],
      [
        "ro",
        "ar"
      ],
      [
        "sna",
        "ke"
      ],
      [
        "smil",
        "ing"
      ],
      [
        "ro",
        "ad"
      ],
      [
        "f",
        "an"
      ],
      [
        "shar",
        "p"
      ],
      [
        "en",
        "s"
      ],
      [
        "accident",
        "ally"
      ],
      [
        "e",
        "g"
      ],
      [
        "any",
        "one"
      ],
      [
        "tal",
        "ked"
      ],
      [
        "wor",
        "d"
      ],
      [
        "pro",
        "ble"
      ],
      [
        "proble",
        "m"
      ],
      [
        "b",
        "ought"
      ],
      [
        "sto",
        "r"
      ],
      [
        "the",
        "se"
      ],
      [
        "g",
        "ather"
      ],
      [
        "heal",
        "thy"
      ],
      [
        "app",
        "les"
      ],
      [
        "ad",
        "e"
      ],
      [
        "sear",
        "ched"
      ],
      [
        "iz",
        "e"
      ],
      [
        "trou",
        "ble"
      ],
      [
        "sand",
        "wi"
      ],
      [
        "w",
        "ide"
      ],
      [
        "ro",
        "pe"
      ],
      [
        "b",
        "ur"
      ],
      [
        "spl",
        "ash"
      ],
      [
        "ir",
        "t"
      ],
      [
        "cir",
        "cle"
      ],
      [
        "interest",
        "ing"
      ],
      [
        "tom",
        "s"
      ],
      [
        "r",
        "at"
      ],
      [
        "cloud",
        "s"
      ],
      [
        "n",
        "ic"
      ],
      [
        "cray",
        "ons"
      ],
      [
        "stor",
        "m"
      ],
      [
        "l",
        "ar"
      ],
      [
        "ent",
        "ly"
      ],
      [
        "cle",
        "ver"
      ],
      [
        "wh",
        "i"
      ],
      [
        "in",
        "v"
      ],
      [
        "tas",
        "ty"
      ],
      [
        "one",
        "s"
      ],
      [
        "pers",
        "on"
      ],
      [
        "smel",
        "led"
      ],
      [
        "p",
        "ile"
      ],
      [
        "spo",
        "on"
      ],
      [
        "mat",
        "ter"
      ],
      [
        "re",
        "spec"
      ],
      [
        "whe",
        "el"
      ],
      [
        "shin",
        "ing"
      ],
      [
        "te",
        "st"
      ],
      [
        "lo",
        "g"
      ],
      [
        "was",
        "h"
      ],
      [
        "pa",
        "th"
      ],
      [
        "she",
        "lf"
      ],
      [
        "fr",
        "ont"
      ],
      [
        "or",
        "gan"
      ],
      [
        "ro",
        "se"
      ],
      [
        "snow",
        "man"
      ],
      [
        "fe",
        "ather"
      ],
      [
        "sp",
        "id"
      ],
      [
        "ch",
        "ing"
      ],
      [
        "e",
        "ag"
      ],
      [
        "comfor",
        "table"
      ],
      [
        "zo",
        "o"
      ],
      [
        "v",
        "ill"
      ],
      [
        "whi",
        "ch"
      ],
      [
        "pro",
        "t"
      ],
      [
        "tim",
        "s"
      ],
      [
        "mu",
        "d"
      ],
      [
        "b",
        "ark"
      ],
      [
        "spot",
        "ted"
      ],
      [
        "pra",
        "ct"
      ],
      [
        "scream",
        "ed"
      ],
      [
        "m",
        "ir"
      ],
      [
        "e",
        "k"
      ],
      [
        "t",
        "ries"
      ],
      [
        "de",
        "st"
      ],
      [
        "fru",
        "it"
      ],
      [
        "val",
        "u"
      ],
      [
        "se",
        "at"
      ],
      [
        "i",
        "a"
      ],
      [
        "lo",
        "ck"
      ],
      [
        "b",
        "an"
      ],
      [
        "pu",
        "zz"
      ],
      [
        "as",
        "leep"
      ],
      [
        "my",
        "ster"
      ],
      [
        "pre",
        "sent"
      ],
      [
        "g",
        "y"
      ],
      [
        "love",
        "ly"
      ],
      [
        "ep",
        "end"
      ],
      [
        "answ",
        "er"
      ],
      [
        "wor",
        "m"
      ],
      [
        "th",
        "in"
      ],
      [
        "dan",
        "ced"
      ],
      [
        "te",
        "ach"
      ],
      [
        "roll",
        "ed"
      ],
      [
        "car",
        "d"
      ],
      [
        "s",
        "ie"
      ],
      [
        "min",
        "ut"
      ],
      [
        "w",
        "ild"
      ],
      [
        "go",
        "es"
      ],
      [
        "ber",
        "ries"
      ],
      [
        "g",
        "ently"
      ],
      [
        "hor",
        "se"
      ],
      [
        "ja",
        "ke"
      ],
      [
        "or",
        "m"
      ],
      [
        "f",
        "li"
      ],
      [
        "con",
        "fused"
      ],
      [
        "p",
        "an"
      ],
      [
        "l",
        "is"
      ],
      [
        "who",
        "le"
      ],
      [
        "m",
        "el"
      ],
      [
        "for",
        "give"
      ],
      [
        "t",
        "ent"
      ],
      [
        "sha",
        "ring"
      ],
      [
        "wear",
        "ing"
      ],
      [
        "place",
        "s"
      ],
      [
        "v",
        "ie"
      ],
      [
        "respec",
        "t"
      ],
      [
        "st",
        "ep"
      ],
      [
        "ru",
        "bb"
      ],
      [
        "boy",
        "s"
      ],
      [
        "ul",
        "ar"
      ],
      [
        "cor",
        "ner"
      ],
      [
        "cal",
        "m"
      ],
      [
        "im",
        "press"
      ],
      [
        "te",
        "e"
      ],
      [
        "ch",
        "ick"
      ],
      [
        "gi",
        "ant"
      ],
      [
        "p",
        "ill"
      ],
      [
        "ru",
        "de"
      ],
      [
        "ri",
        "ch"
      ],
      [
        "tee",
        "th"
      ],
      [
        "dir",
        "t"
      ],
      [
        "sl",
        "id"
      ],
      [
        "st",
        "ring"
      ],
      [
        "grand",
        "pa"
      ],
      [
        "too",
        "l"
      ],
      [
        "m",
        "as"
      ],
      [
        "o",
        "b"
      ],
      [
        "o",
        "ce"
      ],
      [
        "oce",
        "an"
      ],
      [
        "cook",
        "ie"
      ],
      [
        "be",
        "ll"
      ],
      [
        "cor",
        "n"
      ],
      [
        "dri",
        "ve"
      ],
      [
        "sp",
        "ent"
      ],
      [
        "l",
        "ay"
      ],
      [
        "tas",
        "ted"
      ],
      [
        "dog",
        "s"
      ],
      [
        "pretend",
        "ed"
      ],
      [
        "p",
        "ast"
      ],
      [
        "face",
        "s"
      ],
      [
        "kit",
        "ty"
      ],
      [
        "fur",
        "ry"
      ],
      [
        "del",
        "ight"
      ],
      [
        "p",
        "our"
      ],
      [
        "lis",
        "a"
      ],
      [
        "in",
        "c"
      ],
      [
        "n",
        "ut"
      ],
      [
        "bug",
        "s"
      ],
      [
        "la",
        "ce"
      ],
      [
        "tom",
        "or"
      ],
      [
        "o",
        "ven"
      ],
      [
        "pic",
        "nic"
      ],
      [
        "tomor",
        "row"
      ],
      [
        "l",
        "ast"
      ],
      [
        "mach",
        "ine"
      ],
      [
        "fight",
        "ing"
      ],
      [
        "fe",
        "et"
      ],
      [
        "lad",
        "der"
      ],
      [
        "a",
        "tor"
      ],
      [
        "c",
        "har"
      ],
      [
        "stre",
        "t"
      ],
      [
        "sh",
        "y"
      ],
      [
        "sh",
        "r"
      ],
      [
        "t",
        "i"
      ],
      [
        "o",
        "th"
      ],
      [
        "ke",
        "ts"
      ],
      [
        "see",
        "k"
      ],
      [
        "peace",
        "ful"
      ],
      [
        "um",
        "ber"
      ],
      [
        "h",
        "ang"
      ],
      [
        "te",
        "a"
      ],
      [
        "help",
        "ful"
      ],
      [
        "fin",
        "ish"
      ],
      [
        "it",
        "y"
      ],
      [
        "st",
        "air"
      ],
      [
        "re",
        "mind"
      ],
      [
        "tru",
        "e"
      ],
      [
        "sa",
        "ck"
      ],
      [
        "fo",
        "ld"
      ],
      [
        "sp",
        "e"
      ],
      [
        "t",
        "id"
      ],
      [
        "sp",
        "read"
      ],
      [
        "build",
        "ing"
      ],
      [
        "spid",
        "er"
      ],
      [
        "pe",
        "ter"
      ],
      [
        "squ",
        "e"
      ],
      [
        "cho",
        "col"
      ],
      [
        "smo",
        "oth"
      ],
      [
        "cou",
        "ch"
      ],
      [
        "jo",
        "ke"
      ],
      [
        "sp",
        "it"
      ],
      [
        "as",
        "hed"
      ],
      [
        "ble",
        "w"
      ],
      [
        "g",
        "race"
      ],
      [
        "fo",
        "ot"
      ],
      [
        "po",
        "li"
      ],
      [
        "tal",
        "king"
      ],
      [
        "hid",
        "ing"
      ],
      [
        "er",
        "ly"
      ],
      [
        "neck",
        "lace"
      ],
      [
        "pa",
        "w"
      ],
      [
        "k",
        "nee"
      ],
      [
        "wr",
        "ite"
      ],
      [
        "ig",
        "hed"
      ],
      [
        "m",
        "ountain"
      ],
      [
        "tri",
        "p"
      ],
      [
        "so",
        "l"
      ],
      [
        "wo",
        "re"
      ],
      [
        "ch",
        "ased"
      ],
      [
        "le",
        "af"
      ],
      [
        "pudd",
        "le"
      ],
      [
        "clo",
        "th"
      ],
      [
        "po",
        "ol"
      ],
      [
        "song",
        "s"
      ],
      [
        "em",
        "bar"
      ],
      [
        "sha",
        "ke"
      ],
      [
        "d",
        "en"
      ],
      [
        "cra",
        "b"
      ],
      [
        "k",
        "in"
      ],
      [
        "embar",
        "r"
      ],
      [
        "car",
        "rot"
      ],
      [
        "wait",
        "ing"
      ],
      [
        "er",
        "t"
      ],
      [
        "can",
        "not"
      ],
      [
        "vill",
        "age"
      ],
      [
        "ban",
        "an"
      ],
      [
        "embarr",
        "ass"
      ],
      [
        "h",
        "um"
      ],
      [
        "tru",
        "st"
      ],
      [
        "cor",
        "d"
      ],
      [
        "fr",
        "ed"
      ],
      [
        "self",
        "ish"
      ],
      [
        "c",
        "ur"
      ],
      [
        "treat",
        "s"
      ],
      [
        "chocol",
        "ate"
      ],
      [
        "tas",
        "te"
      ],
      [
        "re",
        "x"
      ],
      [
        "y",
        "e"
      ],
      [
        "ca",
        "ge"
      ],
      [
        "lar",
        "ge"
      ],
      [
        "c",
        "ross"
      ],
      [
        "i",
        "pped"
      ],
      [
        "col",
        "our"
      ],
      [
        "l",
        "ves"
      ],
      [
        "whis",
        "tle"
      ],
      [
        "prin",
        "ce"
      ],
      [
        "ul",
        "t"
      ],
      [
        "ro",
        "ts"
      ],
      [
        "tid",
        "y"
      ],
      [
        "st",
        "ir"
      ],
      [
        "bar",
        "ked"
      ],
      [
        "bu",
        "s"
      ],
      [
        "ce",
        "le"
      ],
      [
        "st",
        "ra"
      ],
      [
        "coun",
        "t"
      ],
      [
        "sp",
        "ray"
      ],
      [
        "t",
        "v"
      ],
      [
        "l",
        "ine"
      ],
      [
        "fix",
        "ed"
      ],
      [
        "cele",
        "br"
      ],
      [
        "sh",
        "irt"
      ],
      [
        "al",
        "ice"
      ],
      [
        "ump",
        "y"
      ],
      [
        "s",
        "cre"
      ],
      [
        "t",
        "ie"
      ],
      [
        "mo",
        "on"
      ],
      [
        "o",
        "s"
      ],
      [
        "o",
        "in"
      ],
      [
        "creat",
        "ive"
      ],
      [
        "s",
        "up"
      ],
      [
        "j",
        "ung"
      ],
      [
        "de",
        "ter"
      ],
      [
        "z",
        "a"
      ],
      [
        "car",
        "rots"
      ],
      [
        "p",
        "in"
      ],
      [
        "mm",
        "er"
      ],
      [
        "as",
        "ha"
      ],
      [
        "miss",
        "ed"
      ],
      [
        "stick",
        "s"
      ],
      [
        "jung",
        "le"
      ],
      [
        "jump",
        "ing"
      ],
      [
        "hear",
        "s"
      ],
      [
        "kit",
        "ten"
      ],
      [
        "ben",
        "s"
      ],
      [
        "el",
        "ly"
      ],
      [
        "cou",
        "ra"
      ],
      [
        "embarrass",
        "ed"
      ],
      [
        "app",
        "oin"
      ],
      [
        "for",
        "ward"
      ],
      [
        "wit",
        "ch"
      ],
      [
        "john",
        "ny"
      ],
      [
        "land",
        "ed"
      ],
      [
        "gr",
        "ay"
      ],
      [
        "her",
        "o"
      ],
      [
        "dis",
        "appoin"
      ],
      [
        "f",
        "re"
      ],
      [
        "prot",
        "ect"
      ],
      [
        "cle",
        "ar"
      ],
      [
        "s",
        "our"
      ],
      [
        "h",
        "one"
      ],
      [
        "co",
        "p"
      ],
      [
        "al",
        "most"
      ],
      [
        "tell",
        "s"
      ],
      [
        "pl",
        "ate"
      ],
      [
        "dec",
        "or"
      ],
      [
        "kno",
        "cked"
      ],
      [
        "blo",
        "ck"
      ],
      [
        "me",
        "et"
      ],
      [
        "j",
        "am"
      ],
      [
        "le",
        "gs"
      ],
      [
        "ro",
        "bot"
      ],
      [
        "gre",
        "w"
      ],
      [
        "m",
        "ic"
      ],
      [
        "em",
        "p"
      ],
      [
        "brea",
        "th"
      ],
      [
        "g",
        "as"
      ],
      [
        "ca",
        "pe"
      ],
      [
        "bru",
        "sh"
      ],
      [
        "asha",
        "med"
      ],
      [
        "she",
        "ep"
      ],
      [
        "ve",
        "ge"
      ],
      [
        "vege",
        "table"
      ],
      [
        "g",
        "low"
      ],
      [
        "hone",
        "st"
      ],
      [
        "end",
        "ing"
      ],
      [
        "emp",
        "ty"
      ],
      [
        "me",
        "ad"
      ],
      [
        "poli",
        "ce"
      ],
      [
        "mead",
        "ow"
      ],
      [
        "sa",
        "ve"
      ],
      [
        "jo",
        "g"
      ],
      [
        "stair",
        "s"
      ],
      [
        "p",
        "as"
      ],
      [
        "p",
        "ay"
      ],
      [
        "tight",
        "ly"
      ],
      [
        "go",
        "ld"
      ],
      [
        "w",
        "arn"
      ],
      [
        "ge",
        "ts"
      ],
      [
        "po",
        "lit"
      ],
      [
        "je",
        "wel"
      ],
      [
        "suc",
        "cess"
      ],
      [
        "no",
        "ds"
      ],
      [
        "under",
        "stood"
      ],
      [
        "yel",
        "led"
      ],
      [
        "g",
        "un"
      ],
      [
        "disappoin",
        "ted"
      ],
      [
        "polit",
        "e"
      ],
      [
        "me",
        "ant"
      ],
      [
        "sa",
        "u"
      ],
      [
        "h",
        "ours"
      ],
      [
        "u",
        "su"
      ],
      [
        "j",
        "elly"
      ],
      [
        "pil",
        "low"
      ],
      [
        "ho",
        "spit"
      ],
      [
        "car",
        "ried"
      ],
      [
        "hospit",
        "al"
      ],
      [
        "le",
        "mon"
      ],
      [
        "snack",
        "s"
      ],
      [
        "p",
        "iz"
      ],
      [
        "sp",
        "icy"
      ],
      [
        "fru",
        "str"
      ],
      [
        "ra",
        "g"
      ],
      [
        "spark",
        "ly"
      ],
      [
        "fe",
        "ar"
      ],
      [
        "thank",
        "ful"
      ],
      [
        "po",
        "or"
      ],
      [
        "aoe",
        "i"
      ],
      [
        "k",
        "en"
      ],
      [
        "an",
        "k"
      ],
      [
        "che",
        "w"
      ],
      [
        "bor",
        "ed"
      ],
      [
        "ball",
        "s"
      ],
      [
        "ant",
        "s"
      ],
      [
        "eas",
        "y"
      ],
      [
        "v",
        "ous"
      ],
      [
        "se",
        "ed"
      ],
      [
        "hid",
        "den"
      ],
      [
        "plant",
        "s"
      ],
      [
        "v",
        "an"
      ],
      [
        "sa",
        "ge"
      ],
      [
        "pow",
        "erful"
      ],
      [
        "fli",
        "es"
      ],
      [
        "c",
        "r"
      ],
      [
        "stand",
        "ing"
      ],
      [
        "dre",
        "w"
      ],
      [
        "gen",
        "erous"
      ],
      [
        "b",
        "at"
      ],
      [
        "wave",
        "s"
      ],
      [
        "bed",
        "room"
      ],
      [
        "te",
        "ars"
      ],
      [
        "le",
        "o"
      ],
      [
        "fe",
        "ed"
      ],
      [
        "know",
        "ing"
      ],
      [
        "b",
        "low"
      ],
      [
        "puzz",
        "le"
      ],
      [
        "myster",
        "ious"
      ],
      [
        "n",
        "i"
      ],
      [
        "le",
        "ta"
      ],
      [
        "s",
        "ighed"
      ],
      [
        "ta",
        "ught"
      ],
      [
        "piz",
        "za"
      ],
      [
        "p",
        "ri"
      ],
      [
        "wo",
        "lf"
      ],
      [
        "sho",
        "re"
      ],
      [
        "frustr",
        "ated"
      ],
      [
        "scar",
        "f"
      ],
      [
        "pack",
        "ed"
      ],
      [
        "gr",
        "oup"
      ],
      [
        "re",
        "turned"
      ],
      [
        "cat",
        "er"
      ],
      [
        "t",
        "ic"
      ],
      [
        "cater",
        "pill"
      ],
      [
        "m",
        "ined"
      ],
      [
        "deter",
        "mined"
      ],
      [
        "kiss",
        "ed"
      ],
      [
        "f",
        "la"
      ],
      [
        "mess",
        "y"
      ],
      [
        "sleep",
        "y"
      ],
      [
        "b",
        "ul"
      ],
      [
        "not",
        "e"
      ],
      [
        "fing",
        "er"
      ],
      [
        "gr",
        "umpy"
      ],
      [
        "din",
        "o"
      ],
      [
        "clo",
        "set"
      ],
      [
        "c",
        "ries"
      ],
      [
        "bubb",
        "les"
      ],
      [
        "whis",
        "per"
      ],
      [
        "fan",
        "cy"
      ],
      [
        "p",
        "ir"
      ],
      [
        "c",
        "ase"
      ],
      [
        "d",
        "le"
      ],
      [
        "r",
        "ad"
      ],
      [
        "minut",
        "es"
      ],
      [
        "ug",
        "ly"
      ],
      [
        "so",
        "ld"
      ],
      [
        "f",
        "ig"
      ],
      [
        "sandwi",
        "ch"
      ],
      [
        "m",
        "id"
      ],
      [
        "your",
        "self"
      ],
      [
        "ner",
        "vous"
      ],
      [
        "ber",
        "ry"
      ],
      [
        "br",
        "idge"
      ],
      [
        "keep",
        "er"
      ],
      [
        "it",
        "a"
      ],
      [
        "spo",
        "il"
      ],
      [
        "to",
        "wel"
      ],
      [
        "of",
        "ten"
      ],
      [
        "g",
        "ate"
      ],
      [
        "exc",
        "ite"
      ],
      [
        "colle",
        "ct"
      ],
      [
        "wor",
        "king"
      ],
      [
        "che",
        "st"
      ],
      [
        "tw",
        "irl"
      ],
      [
        "sp",
        "ace"
      ],
      [
        "pass",
        "ed"
      ],
      [
        "c",
        "rown"
      ],
      [
        "twe",
        "et"
      ],
      [
        "fl",
        "ag"
      ],
      [
        "gather",
        "ed"
      ],
      [
        "t",
        "ig"
      ],
      [
        "li",
        "z"
      ],
      [
        "we",
        "ek"
      ],
      [
        "ho",
        "pping"
      ],
      [
        "sc",
        "is"
      ],
      [
        "scis",
        "sor"
      ],
      [
        "ign",
        "or"
      ],
      [
        "er",
        "a"
      ],
      [
        "sa",
        "ur"
      ],
      [
        "scissor",
        "s"
      ],
      [
        "ens",
        "ive"
      ],
      [
        "exp",
        "ensive"
      ],
      [
        "c",
        "and"
      ],
      [
        "r",
        "or"
      ],
      [
        "fin",
        "e"
      ],
      [
        "for",
        "m"
      ],
      [
        "le",
        "g"
      ],
      [
        "girl",
        "s"
      ],
      [
        "dan",
        "cing"
      ],
      [
        "li",
        "f"
      ],
      [
        "kno",
        "wn"
      ],
      [
        "caterpill",
        "ar"
      ],
      [
        "f",
        "il"
      ],
      [
        "bor",
        "ing"
      ],
      [
        "al",
        "low"
      ],
      [
        "dino",
        "saur"
      ],
      [
        "v",
        "ase"
      ],
      [
        "ta",
        "ken"
      ],
      [
        "sa",
        "ved"
      ],
      [
        "pick",
        "s"
      ],
      [
        "ran",
        "k"
      ],
      [
        "excite",
        "ment"
      ],
      [
        "answ",
        "ered"
      ],
      [
        "wa",
        "ke"
      ],
      [
        "f",
        "u"
      ],
      [
        "cl",
        "ass"
      ],
      [
        "bo",
        "ss"
      ],
      [
        "clo",
        "wn"
      ],
      [
        "de",
        "er"
      ],
      [
        "pa",
        "ir"
      ],
      [
        "que",
        "en"
      ],
      [
        "ch",
        "ange"
      ],
      [
        "mis",
        "take"
      ],
      [
        "su",
        "sie"
      ],
      [
        "ast",
        "ic"
      ],
      [
        "wag",
        "ged"
      ],
      [
        "li",
        "cked"
      ],
      [
        "n",
        "ed"
      ],
      [
        "ex",
        "am"
      ],
      [
        "mid",
        "dle"
      ],
      [
        "usu",
        "al"
      ],
      [
        "p",
        "ec"
      ],
      [
        "fru",
        "its"
      ],
      [
        "mat",
        "ch"
      ],
      [
        "gigg",
        "led"
      ],
      [
[...]
